[PAD]
[unused1]
[unused2]
[unused3]
[unused4]
[unused5]
[unused6]
[unused7]
[unused8]
[unused9]
[unused10]
[unused11]
[unused12]
[unused13]
[unused14]
[unused15]
[unused16]
[unused17]
[unused18]
[unused19]
[unused20]
[unused21]
[unused22]
[unused23]
[unused24]
[unused25]
[unused26]
[unused27]
[unused28]
[unused29]
[unused30]
[unused31]
[unused32]
[unused33]
[unused34]
[unused35]
[unused36]
[unused37]
[unused38]
[unused39]
[unused40]
[unused41]
[unused42]
[unused43]
[unused44]
[unused45]
[unused46]
[unused47]
[unused48]
[unused49]
[unused50]
[unused51]
[unused52]
[unused53]
[unused54]
[unused55]
[unused56]
[unused57]
[unused58]
[unused59]
[unused60]
[unused61]
[unused62]
[unused63]
[unused64]
[unused65]
[unused66]
[unused67]
[unused68]
[unused69]
[unused70]
[unused71]
[unused72]
[unused73]
[unused74]
[unused75]
[unused76]
[unused77]
[unused78]
[unused79]
[unused80]
[unused81]
[unused82]
[unused83]
[unused84]
[unused85]
[unused86]
[unused87]
[unused88]
[unused89]
[unused90]
[unused91]
[unused92]
[unused93]
[unused94]
[unused95]
[unused96]
[unused97]
[unused98]
[unused99]
[UNK]
[CLS]
[SEP]
[MASK]
<S>
<T>
!
"
#
$
%
&
'
(
)
*
+
,
-
.
/
0
1
2
3
4
5
6
7
8
9
:
;
<
=
>
?
@
A
B
C
D
E
F
G
H
I
J
K
L
M
N
O
P
Q
R
S
T
U
V
W
X
Y
Z
[
\
]
^
_
`
a
b
c
d
e
f
g
h
i
j
k
l
m
n
o
p
q
r
s
t
u
v
w
x
y
z
{
|
}
~
 
¡
¢
£
¤
¥
¦
§
¨
©
ª
«
¬
®
¯
°
±
²
³
´
µ
¶
·
¸
¹
º
»
¼
½
¾
¿
À
Á
Â
Ã
Ä
Å
Æ
Ç
È
É
Ê
Ë
Ì
Í
Î
Ï
Ð
Ñ
Ò
Ó
Ô
Õ
Ö
×
Ø
Ù
Ú
Û
Ü
Ý
Þ
ß
à
á
â
ã
ä
å
æ
ç
è
é
ê
ë
ì
í
î
ï
ð
ñ
ò
ó
ô
õ
ö
÷
ø
ù
ú
û
ü
ý
þ
ÿ
Ā
ā
Ă
ă
Ą
ą
Ć
ć
Ĉ
ĉ
Ċ
ċ
Č
č
Ď
ď
Đ
đ
Ē
ē
ĕ
Ė
ė
Ę
ę
Ě
ě
Ĝ
ĝ
Ğ
ğ
Ġ
ġ
Ģ
ģ
Ĥ
ĥ
Ħ
ħ
Ĩ
ĩ
Ī
ī
ĭ
Į
į
İ
ı
ĳ
Ĵ
ĵ
Ķ
ķ
ĸ
Ĺ
ĺ
Ļ
ļ
Ľ
ľ
Ł
ł
Ń
ń
Ņ
ņ
Ň
ň
ŉ
Ŋ
ŋ
Ō
ō
ŏ
Ő
ő
Œ
œ
Ŕ
ŕ
ŗ
Ř
ř
Ś
ś
Ŝ
ŝ
Ş
ş
Š
š
Ţ
ţ
Ť
ť
Ŧ
ŧ
Ũ
ũ
Ū
ū
ŭ
Ů
ů
Ű
ű
Ų
ų
Ŵ
ŵ
ŷ
Ÿ
Ź
ź
Ż
ż
Ž
ž
ſ
Ɓ
Ɔ
Ɗ
Ə
Ɛ
Ƒ
ƒ
Ɩ
Ɨ
Ƙ
ƙ
ƚ
Ơ
ơ
ƣ
Ƥ
Ư
ư
Ʋ
ƴ
Ʒ
Ƹ
Ƽ
ǀ
ǁ
Ǎ
ǎ
Ǐ
ǐ
Ǒ
ǒ
Ǔ
ǔ
ǚ
ǝ
Ǫ
ǫ
Ǵ
ǵ
Ǹ
ǹ
ǽ
ȃ
Ȋ
ȋ
ȏ
ȗ
Ș
ș
Ț
ț
ȫ
ȱ
Ʉ
ɑ
ɒ
ɓ
ɔ
ɖ
ɗ
ə
ɛ
ɜ
ɡ
ɢ
ɣ
ɦ
ɨ
ɩ
ɪ
ɫ
ɲ
ɾ
ʃ
ʉ
ʊ
ʋ
ʌ
ʏ
ʒ
ʔ
ʕ
ʖ
ʘ
ʜ
ʹ
ʺ
ʻ
ʼ
ʾ
ʿ
˂
˃
ˆ
ˇ
ˈ
ˉ
ˊ
ˋ
ˌ
ˎ
ː
˗
˘
˙
˚
˛
˜
˝
ˬ
ˮ
˵
˼
˾
̀
́
̂
̃
̄
̅
̆
̇
̈
̉
̊
̋
̌
̍
̒
̓
̔
̟
̡
̣
̥
̦
̧
̨
̩
̫
̭
̮
̰
̱
̳
̵
̶
̷
͑
͒
͕
͜
͡
ͻ
;
΄
Ά
·
Έ
Ή
Ί
Ό
Ύ
Ώ
ΐ
Α
Β
Γ
Δ
Ε
Ζ
Η
Θ
Ι
Κ
Λ
Μ
Ν
Ξ
Ο
Π
Ρ
Σ
Τ
Υ
Φ
Χ
Ψ
Ω
Ϊ
ά
έ
ή
ί
ΰ
α
β
γ
δ
ε
ζ
η
θ
ι
κ
λ
μ
ν
ξ
ο
π
ρ
ς
σ
τ
υ
φ
χ
ψ
ω
ϊ
ϋ
ό
ύ
ώ
ϑ
ϕ
Ϙ
ϟ
ϩ
Ϫ
ϫ
ϭ
Ϯ
ϵ
Ͻ
Ё
Ђ
Ѓ
Є
Ѕ
І
Ї
Ј
Љ
Њ
Ћ
Ќ
Ѝ
Ў
Џ
А
Б
В
Г
Д
Е
Ж
З
И
Й
К
Л
М
Н
О
П
Р
С
Т
У
Ф
Х
Ц
Ч
Ш
Щ
Ъ
Ы
Ь
Э
Ю
Я
а
б
в
г
д
е
ж
з
и
й
к
л
м
н
о
п
р
с
т
у
ф
х
ц
ч
ш
щ
ъ
ы
ь
э
ю
я
ѐ
ё
ђ
ѓ
є
ѕ
і
ї
ј
љ
њ
ћ
ќ
ѝ
ў
џ
ѡ
ѣ
ѧ
ѫ
Ѳ
ѳ
ѵ
Ѽ
Ґ
ґ
Ғ
ғ
ҕ
Җ
җ
ҙ
Қ
қ
Ҝ
ҝ
Ҡ
ҡ
Ң
ң
ҥ
ҧ
Ҫ
ҫ
Ү
ү
Ұ
ұ
Ҳ
ҳ
ҵ
Ҷ
ҷ
Ҹ
ҹ
Һ
һ
ҽ
ҿ
Ӏ
ӊ
ӓ
ӕ
Ә
ә
ӛ
Ӝ
ӟ
Ӣ
ӣ
ӥ
ӧ
Ө
ө
Ӯ
ӯ
ӱ
ԁ
ԑ
ԥ
Ա
Բ
Գ
Դ
Ե
Զ
Է
Ը
Թ
Ժ
Ի
Լ
Խ
Ծ
Կ
Հ
Ձ
Ղ
Ճ
Մ
Յ
Ն
Շ
Ո
Չ
Պ
Ջ
Ռ
Ս
Վ
Տ
Ր
Ց
Ւ
Փ
Ք
Օ
Ֆ
ՙ
՚
՛
՜
՝
՞
՟
ա
բ
գ
դ
ե
զ
է
ը
թ
ժ
ի
լ
խ
ծ
կ
հ
ձ
ղ
ճ
մ
յ
ն
շ
ո
չ
պ
ջ
ռ
ս
վ
տ
ր
ց
ւ
փ
ք
օ
ֆ
և
։
֊
֏
ְ
ֱ
ֲ
ֳ
ִ
ֵ
ֶ
ַ
ָ
ֹ
ֻ
ּ
־
ֿ
׀
ׁ
ׂ
׃
א
ב
ג
ד
ה
ו
ז
ח
ט
י
ך
כ
ל
ם
מ
ן
נ
ס
ע
ף
פ
ץ
צ
ק
ר
ש
ת
װ
ױ
ײ
׳
״
،
؍
؎
؏
ؐ
ؑ
ؒ
ؓ
ؔ
ؕ
؛
؟
ء
آ
أ
ؤ
إ
ئ
ا
ب
ة
ت
ث
ج
ح
خ
د
ذ
ر
ز
س
ش
ص
ض
ط
ظ
ع
غ
ػ
ؿ
ـ
ف
ق
ك
ل
م
ن
ه
و
ى
ي
ً
ٌ
ٍ
َ
ُ
ِ
ّ
ْ
ٓ
ٔ
ٖ
ٗ
ٙ
ٚ
ٛ
ٝ
ٞ
٠
١
٢
٣
٤
٥
٦
٧
٨
٩
٪
٫
٬
٭
ٰ
ٱ
ٲ
ٴ
ٹ
ٺ
ٻ
ټ
ٽ
پ
ٿ
ڀ
ځ
ڃ
ڄ
څ
چ
ڇ
ڈ
ډ
ڊ
ڌ
ڍ
ڏ
ڑ
ړ
ڕ
ږ
ژ
ڙ
ښ
ڠ
ڤ
ڦ
ک
ڪ
ګ
ڭ
گ
ڱ
ڳ
ڵ
ں
ڻ
ڼ
ھ
ۀ
ہ
ۂ
ۃ
ۆ
ۇ
ۈ
ۋ
ی
ۍ
ې
ے
ۓ
۔
ە
ۖ
ۗ
ۘ
ۙ
ۚ
ۛ
۞
۟
ۡ
ۢ
ۤ
ۥ
ۦ
۩
۰
۱
۲
۳
۴
۵
۶
۷
۸
۹
۽
۾
܀
܈
܊
ܡ
ܢ
ݣ
ހ
ށ
ނ
ރ
ބ
ޅ
ކ
އ
ވ
މ
ފ
ދ
ތ
ގ
ސ
ޑ
ޓ
ޔ
ޖ
ޗ
ަ
ާ
ި
ީ
ު
ެ
ް
ߋ
ँ
ं
ः
ऄ
अ
आ
इ
ई
उ
ऊ
ऋ
ऍ
ऎ
ए
ऐ
ऑ
ओ
औ
क
ख
ग
घ
ङ
च
छ
ज
झ
ञ
ट
ठ
ड
ढ
ण
त
थ
द
ध
न
ऩ
प
फ
ब
भ
म
य
र
ऱ
ल
ळ
व
श
ष
स
ह
़
ऽ
ा
ि
ी
ु
ू
ृ
ॅ
ॆ
े
ै
ॉ
ॊ
ो
ौ
्
ॐ
॑
॓
क़
ख़
ग़
ज़
ड़
ढ़
फ़
य़
।
॥
०
१
२
३
४
५
६
७
८
९
॰
ॲ
ॴ
ঁ
ং
ঃ
অ
আ
ই
ঈ
উ
ঊ
ঋ
এ
ঐ
঑
ও
ঔ
ক
খ
গ
ঘ
ঙ
চ
ছ
জ
ঝ
ঞ
ট
ঠ
ড
ঢ
ণ
ত
থ
দ
ধ
ন
঩
প
ফ
ব
ভ
ম
য
র
ল
শ
ষ
স
হ
়
া
ি
ী
ু
ূ
ৃ
ে
ৈ
ো
ৌ
্
ৎ
ৗ
ড়
ঢ়
য়
০
১
২
৩
৪
৫
৬
৭
৮
৯
ৰ
ৱ
৲
৳
৷
৹
ਂ
ਃ
ਅ
ਆ
ਇ
ਈ
ਉ
ਊ
ਏ
ਐ
ਓ
ਔ
ਕ
ਖ
ਗ
ਘ
ਙ
ਚ
ਛ
ਜ
ਝ
ਞ
ਟ
ਠ
ਡ
ਢ
ਣ
ਤ
ਥ
ਦ
ਧ
ਨ
ਪ
ਫ
ਬ
ਭ
ਮ
ਯ
ਰ
ਲ
ਲ਼
ਵ
ਸ਼
ਸ
ਹ
਼
ਾ
ਿ
ੀ
ੁ
ੂ
ੇ
ੈ
ੋ
ੌ
੍
੔
ਖ਼
ਗ਼
ਜ਼
ੜ
ਫ਼
੦
੧
੨
੩
੪
੫
੬
੭
੮
੯
ੰ
ੱ
ੲ
ੳ
ੴ
ઁ
ં
ઃ
઄
અ
આ
ઇ
ઈ
ઉ
ઊ
ઋ
ઍ
એ
ઐ
ઑ
ઓ
ઔ
ક
ખ
ગ
ઘ
ચ
છ
જ
ઝ
ઞ
ટ
ઠ
ડ
ઢ
ણ
ત
થ
દ
ધ
ન
઩
પ
ફ
બ
ભ
મ
ય
ર
લ
ળ
વ
શ
ષ
સ
હ
઼
ા
િ
ી
ુ
ૂ
ૃ
ૅ
ે
ૈ
ૉ
૊
ો
ૌ
્
ૐ
૦
૧
૨
૩
૪
૫
૬
૭
૮
૯
ଁ
ଂ
ଃ
ଅ
ଆ
ଇ
ଈ
ଉ
ଊ
ଋ
ଏ
ଐ
ଓ
ଔ
କ
ଖ
ଗ
ଘ
ଙ
ଚ
ଛ
ଜ
ଝ
ଞ
ଟ
ଠ
ଡ
ଢ
ଣ
ତ
ଥ
ଦ
ଧ
ନ
ପ
ଫ
ବ
ଭ
ମ
ଯ
ର
ଲ
ଳ
ଵ
ଶ
ଷ
ସ
ହ
଼
ା
ି
ୀ
ୁ
ୂ
ୃ
େ
ୈ
ୋ
ୌ
୍
ୖ
ୗ
ଡ଼
ଢ଼
ୟ
୤
୦
୧
୨
୩
୪
୫
୬
୭
୮
୯
ୱ
ஃ
அ
ஆ
இ
ஈ
உ
ஊ
஋
஌
எ
ஏ
ஐ
ஒ
ஓ
ஔ
க
ங
ச
ஜ
ஞ
ட
஡
஢
ண
த
஥
஦
஧
ந
ன
ப
஬
ம
ய
ர
ற
ல
ள
ழ
வ
ஶ
ஷ
ஸ
ஹ
ா
ி
ீ
ு
ூ
ெ
ே
ை
௉
ொ
ோ
ௌ
்
ௐ
௦
௧
௨
௫
௬
௮
ఁ
ం
ః
అ
ఆ
ఇ
ఈ
ఉ
ఊ
ఋ
ఎ
ఏ
ఐ
఑
ఒ
ఓ
ఔ
క
ఖ
గ
ఘ
ఙ
చ
ఛ
జ
ఝ
ఞ
ట
ఠ
డ
ఢ
ణ
త
థ
ద
ధ
న
ప
ఫ
బ
భ
మ
య
ర
ఱ
ల
ళ
వ
శ
ష
స
హ
ా
ి
ీ
ు
ూ
ృ
ె
ే
ై
ొ
ో
ౌ
్
ౖ
౦
౧
౨
౩
౪
౫
౬
౭
౮
౯
ಂ
ಃ
಄
ಅ
ಆ
ಇ
ಈ
ಉ
ಊ
ಋ
ಎ
ಏ
ಐ
ಒ
ಓ
ಔ
ಕ
ಖ
ಗ
ಘ
ಙ
ಚ
ಛ
ಜ
ಝ
ಞ
ಟ
ಠ
ಡ
ಢ
ಣ
ತ
ಥ
ದ
ಧ
ನ
ಪ
ಫ
ಬ
ಭ
ಮ
ಯ
ರ
ಲ
ಳ
ವ
ಶ
ಷ
ಸ
ಹ
಼
ಾ
ಿ
ೀ
ು
ೂ
ೃ
ೆ
ೇ
ೈ
ೊ
ೋ
ೌ
್
ೕ
ೖ
೦
೧
೨
೩
೪
೫
೬
೭
೮
೯
ഀ
ം
ഃ
അ
ആ
ഇ
ഈ
ഉ
ഊ
ഋ
ഌ
എ
ഏ
ഐ
ഒ
ഓ
ഔ
ക
ഖ
ഗ
ഘ
ങ
ച
ഛ
ജ
ഝ
ഞ
ട
ഠ
ഡ
ഢ
ണ
ത
ഥ
ദ
ധ
ന
പ
ഫ
ബ
ഭ
മ
യ
ര
റ
ല
ള
ഴ
വ
ശ
ഷ
സ
ഹ
ാ
ി
ീ
ു
ൂ
ൃ
െ
േ
ൈ
ൊ
ോ
ൌ
്
ൗ
൦
൧
൨
൩
൪
൫
൬
൮
൯
ൺ
ൻ
ർ
ൽ
ൾ
ං
ඃ
අ
ආ
ඇ
ඈ
ඉ
ඊ
උ
ඌ
ඍ
එ
ඒ
ඓ
ඔ
ඕ
ඖ
ක
ඛ
ග
ඝ
ඞ
ඟ
ච
ඡ
ජ
ඤ
ඥ
ට
ඨ
ඩ
ඪ
ණ
ඬ
ත
ථ
ද
ධ
න
ඳ
ප
ඵ
බ
භ
ම
ඹ
ය
ර
ල
ව
ශ
ෂ
ස
හ
ළ
ෆ
්
ා
ැ
ෑ
ි
ී
ු
ූ
ෘ
ෙ
ේ
ෛ
ො
ෝ
ෞ
ෟ
෮
ෲ
෴
฀
ก
ข
ค
ฅ
ฆ
ง
จ
ฉ
ช
ซ
ฌ
ญ
ฎ
ฏ
ฐ
ฑ
ฒ
ณ
ด
ต
ถ
ท
ธ
น
บ
ป
ผ
ฝ
พ
ฟ
ภ
ม
ย
ร
ฤ
ล
ว
ศ
ษ
ส
ห
ฬ
อ
ฮ
ฯ
ะ
ั
า
ำ
ิ
ี
ึ
ื
ุ
ู
ฺ
฿
เ
แ
โ
ใ
ไ
ๆ
็
่
้
๊
๋
์
ํ
๏
๐
๑
๒
๓
๔
๕
๖
๗
๘
๙
๚
๛
ກ
ຂ
ຄ
຅
ງ
ຈ
ຊ
ຌ
ຍ
ຐ
ຑ
ດ
ຕ
ຖ
ທ
ນ
ບ
ປ
ຜ
ຝ
ພ
ຟ
ມ
ຢ
ຣ
ລ
ວ
ສ
ຫ
ອ
ຮ
ຯ
ະ
ັ
າ
ຳ
ິ
ີ
ຶ
ື
ຸ
ູ
ົ
ຼ
ຽ
ເ
ແ
ໂ
ໃ
ໄ
ໆ
່
້
໊
໋
໌
ໍ
໐
໑
໒
໓
໔
໕
ໜ
ໝ
༄
༅
་
༌
།
༎
༠
༡
༢
༣
༤
༥
༦
༧
༨
༩
༺
༼
༽
ཀ
ཁ
ག
ང
ཅ
ཆ
ཇ
ཉ
ཊ
ཌ
ཎ
ཏ
ཐ
ད
ན
པ
ཕ
བ
མ
ཙ
ཚ
ཛ
ཝ
ཞ
ཟ
འ
ཡ
ར
ལ
ཤ
ས
ཧ
ཨ
ཱ
ི
ུ
ེ
ོ
ཾ
ྋ
ྐ
ྒ
ྔ
ྕ
ྗ
ྙ
ྟ
ྡ
ྣ
ྤ
ྥ
ྦ
ྨ
ྩ
ྫ
ྭ
ྰ
ྱ
ྲ
ླ
ྷ
က
ခ
ဂ
ဃ
င
စ
ဆ
ဇ
ဈ
ဉ
ည
ဋ
ဌ
ဍ
ဎ
ဏ
တ
ထ
ဒ
ဓ
န
ပ
ဖ
ဗ
ဘ
မ
ယ
ရ
လ
ဝ
သ
ဟ
ဠ
အ
ဢ
ဣ
ဤ
ဥ
ဦ
ဧ
ဩ
ဪ
ါ
ာ
ိ
ီ
ု
ူ
ေ
ဲ
ဳ
ဴ
ဵ
ံ
့
း
္
်
ျ
ြ
ွ
ှ
ဿ
၀
၁
၂
၃
၄
၅
၆
၇
၈
၉
၊
။
၌
၍
၎
၏
ၐ
ၚ
ၝ
ၞ
ၠ
ၡ
ၢ
ၣ
ၤ
ၥ
ၧ
ၱ
ၲ
ၳ
ၵ
ၶ
ၷ
ၸ
ၺ
ၼ
ၽ
ၾ
ၿ
ႀ
ႁ
ႂ
ႃ
ႄ
ႆ
ႇ
ႈ
ႉ
ႊ
ႏ
႐
႒
႓
႔
႕
ႛ
ა
ბ
გ
დ
ე
ვ
ზ
თ
ი
კ
ლ
მ
ნ
ო
პ
ჟ
რ
ს
ტ
უ
ფ
ქ
ღ
ყ
შ
ჩ
ც
ძ
წ
ჭ
ხ
ჯ
ჰ
ჱ
ჲ
ᄀ
ᄂ
ᄃ
ᄅ
ᄆ
ᄇ
ᄉ
ᄋ
ᄌ
ᄍ
ᄎ
ᄏ
ᄒ
ᅠ
ᅮ
ᅲ
ᅳ
ᅵ
ᆞ
ሀ
ሁ
ሂ
ሃ
ሄ
ህ
ሆ
ሇ
ለ
ሉ
ሊ
ላ
ሌ
ል
ሎ
ሏ
ሐ
ሑ
ሒ
ሓ
ሔ
ሕ
ሖ
ሗ
መ
ሙ
ሚ
ማ
ሜ
ም
ሞ
ሟ
ሠ
ሡ
ሢ
ሣ
ሤ
ሥ
ሦ
ረ
ሩ
ሪ
ራ
ሬ
ር
ሮ
ሯ
ሰ
ሱ
ሲ
ሳ
ሴ
ስ
ሶ
ሷ
ሸ
ሹ
ሺ
ሻ
ሼ
ሽ
ሾ
ሿ
ቀ
ቁ
ቂ
ቃ
ቄ
ቅ
ቆ
ቈ
ቊ
ቋ
ቍ
ቐ
ቓ
ቕ
በ
ቡ
ቢ
ባ
ቤ
ብ
ቦ
ቧ
ቨ
ቪ
ቫ
ቬ
ቭ
ቮ
ተ
ቱ
ቲ
ታ
ቴ
ት
ቶ
ቷ
ቸ
ቹ
ቺ
ቻ
ቼ
ች
ቾ
ቿ
ኀ
ኃ
ኄ
ኅ
ኋ
ነ
ኑ
ኒ
ና
ኔ
ን
ኖ
ኗ
ኘ
ኙ
ኚ
ኛ
ኜ
ኝ
ኞ
ኟ
አ
ኡ
ኢ
ኣ
ኤ
እ
ኦ
ኧ
ከ
ኩ
ኪ
ካ
ኬ
ክ
ኮ
ኰ
ኲ
ኳ
ኴ
ኵ
ኸ
ኹ
ኺ
ኻ
ኼ
ኽ
ኾ
ዀ
ዃ
ዅ
ወ
ዉ
ዊ
ዋ
ዌ
ው
ዎ
ዐ
ዑ
ዒ
ዓ
ዔ
ዕ
ዖ
ዘ
ዙ
ዚ
ዛ
ዜ
ዝ
ዞ
ዟ
ዠ
ዡ
ዢ
ዣ
ዤ
ዥ
ዦ
የ
ዩ
ዪ
ያ
ዬ
ይ
ዮ
ዯ
ደ
ዱ
ዲ
ዳ
ዴ
ድ
ዶ
ዷ
ዽ
ጀ
ጁ
ጂ
ጃ
ጄ
ጅ
ጆ
ጇ
ገ
ጉ
ጊ
ጋ
ጌ
ግ
ጎ
ጐ
ጒ
ጓ
ጕ
ጠ
ጡ
ጢ
ጣ
ጤ
ጥ
ጦ
ጧ
ጨ
ጩ
ጪ
ጫ
ጬ
ጭ
ጮ
ጰ
ጲ
ጳ
ጴ
ጵ
ጶ
ጸ
ጹ
ጺ
ጻ
ጼ
ጽ
ጾ
ጿ
ፀ
ፁ
ፂ
ፃ
ፄ
ፅ
ፆ
ፇ
ፈ
ፉ
ፊ
ፋ
ፌ
ፍ
ፎ
ፏ
ፐ
ፑ
ፒ
ፓ
ፔ
ፕ
ፖ
፠
፡
።
፣
፤
፥
፦
፧
፨
፩
፪
፫
፬
፭
፮
፯
፰
፱
፲
፳
፴
፻
ᎏ
Ꭹ
Ꮃ
Ꮳ
ᐅ
ᐈ
ᐉ
ᐛ
ᗜ
᛫
ក
ខ
គ
ឃ
ង
ច
ឆ
ជ
ឈ
ញ
ដ
ឋ
ឌ
ឍ
ណ
ត
ថ
ទ
ធ
ន
ប
ផ
ព
ភ
ម
យ
រ
ល
វ
ឝ
ឞ
ស
ហ
ឡ
អ
ឥ
ឦ
ឧ
ឩ
ឪ
ឫ
ឬ
ឭ
ឮ
ឯ
ឰ
ឱ
ឲ
ឳ
ា
ិ
ី
ឹ
ឺ
ុ
ូ
ួ
ើ
ឿ
ៀ
េ
ែ
ៃ
ោ
ៅ
ំ
ះ
ៈ
៉
៊
់
៌
៍
៎
៏
័
្
។
៕
៖
ៗ
៙
៚
៛
៝
០
១
២
៣
៤
៥
៦
៧
៨
៩
ᥙ
᧐
Ა
Ბ
Დ
Ე
Ვ
Ზ
Თ
Ი
Ლ
Ო
Პ
Რ
Უ
Ღ
Შ
ᴀ
ᴅ
ᴇ
ᴐ
ᴗ
ᴥ
ᴦ
ᴰ
ᴴ
ᵕ
ᵾ
ḃ
ḍ
ḏ
Ḑ
ḑ
ḓ
Ḕ
Ḥ
ḥ
Ḩ
ḩ
ḷ
ḽ
ḿ
ṃ
ṅ
ṇ
ṍ
Ṛ
ṛ
ṟ
Ṣ
ṣ
ṭ
ẅ
ẍ
ẕ
ẖ
Ạ
ạ
Ả
ả
Ấ
ấ
Ầ
ầ
Ẩ
ẩ
Ẫ
ẫ
Ậ
ậ
Ắ
ắ
Ằ
ằ
Ẳ
ẳ
Ẵ
ẵ
Ặ
ặ
Ẹ
ẹ
Ẻ
ẻ
Ẽ
ẽ
Ế
ế
Ề
ề
Ể
ể
Ễ
ễ
Ệ
ệ
Ỉ
ỉ
Ị
ị
Ọ
ọ
Ỏ
ỏ
Ố
ố
Ồ
ồ
Ổ
ổ
Ỗ
ỗ
Ộ
ộ
Ớ
ớ
Ờ
ờ
Ở
ở
Ỡ
ỡ
Ợ
ợ
Ụ
ụ
Ủ
ủ
Ứ
ứ
Ừ
ừ
Ử
ử
Ữ
ữ
Ự
ự
Ỳ
ỳ
ỵ
Ỷ
ỷ
Ỹ
ỹ
ἀ
ἁ
ἂ
ἃ
ἄ
ἅ
Ἀ
Ἁ
Ἂ
Ἄ
Ἅ
ἐ
ἑ
ἓ
ἔ
ἕ
Ἐ
Ἑ
Ἔ
Ἕ
ἠ
ἡ
ἢ
ἣ
ἤ
ἥ
ἦ
ἧ
Ἠ
Ἡ
Ἦ
ἰ
ἱ
ἴ
ἵ
ἶ
ἷ
Ἰ
Ἱ
ὀ
ὁ
ὃ
ὄ
ὅ
Ὀ
Ὁ
Ὄ
Ὅ
ὐ
ὑ
ὔ
ὕ
ὖ
ὗ
Ὑ
Ὕ
ὡ
ὥ
ὦ
ὧ
Ὡ
ὰ
ὲ
ὴ
ὶ
ὸ
ὺ
ὼ
ᾠ
ᾧ
ᾳ
ᾶ
ῃ
ῆ
ῇ
ῖ
ῦ
ῳ
ῶ
ῷ
 
 
 
 
 
 
 
 
‐
‑
‒
–
—
―
‖
‗
‘
’
‚
‛
“
”
„
‟
†
‡
•
‣
․
‥
…
‧
 
 
 
‰
′
″
‵
‹
›
※
‼
‾
‿
⁂
⁃
⁄
⁇
⁈
⁉
⁊
⁎
⁞
⁰
⁴
⁽
⁾
ⁿ
₂
₃
₍
₎
₡
₣
₤
₦
₨
₩
₪
₫
€
₭
₮
₱
₴
₵
₸
₹
₺
₽
⃝
⃞
⃣
℃
℉
ℓ
№
℗
™
Ω
⅓
⅔
⅛
Ⅰ
Ⅱ
Ⅲ
Ⅳ
Ⅴ
Ⅵ
Ⅶ
Ⅷ
ⅰ
ⅼ
ↄ
←
↑
→
↓
↔
↕
↖
↗
↘
↙
↠
↩
↪
↲
↳
↵
↺
↻
⇄
⇅
⇆
⇌
⇐
⇑
⇒
⇓
⇔
⇖
⇛
⇢
⇥
⇦
⇧
⇨
⇩
⇪
⇱
⇽
∀
∂
∃
∅
∆
∇
∈
∋
∎
∏
∑
−
∕
∗
∘
∙
√
∝
∞
∟
∠
∣
∥
∧
∨
∩
∪
∫
∮
∴
∵
∶
∷
∼
∽
≃
≅
≈
≒
≠
≡
≤
≥
≦
≧
≪
≫
≮
≯
≲
⊂
⊃
⊆
⊕
⊗
⊙
⊞
⊥
⊰
⊱
⊲
⊹
⊿
⋅
⋆
⋈
⋘
⋙
⋮
⋯
⌀
⌈
⌊
⌋
⌒
⌘
⌚
⌛
⌦
⌫
⌬
⌹
⎛
⎜
⎝
⎞
⎟
⎠
⎡
⎢
⎣
⎤
⎥
⎦
⎪
⎯
⏎
⏩
⏪
⏬
⏰
⏱
⏲
⏳
⏺
␣
␤
␮
①
②
③
④
⑤
⑥
⑦
⑧
⑨
⑩
⑪
⑫
⑬
⑭
⑴
⑵
⑶
⑷
⑸
⑹
⑺
⒈
⒉
⒊
⒋
⒌
Ⓒ
ⓒ
─
━
│
┃
┆
┇
┈
┊
┌
┏
┐
┑
┓
└
┗
┘
┛
├
┝
┣
┤
┬
┴
┼
╁
╂
╃
╋
═
║
╕
╗
╚
╝
╠
╥
╬
╭
╮
╯
╰
╱
╳
╹
▀
▁
▂
▃
▄
▅
▆
▇
█
▊
▋
▌
▍
▏
▐
░
▒
▓
■
□
▢
▣
▧
▨
▪
▫
▬
▮
▯
▲
△
▴
▶
▷
▸
▹
►
▻
▼
▽
▾
▿
◀
◁
◄
◆
◇
◈
◉
◊
○
◌
◍
◎
●
◐
◑
◕
◗
◘
◙
◠
◡
◢
◣
◤
◦
◯
◳
◻
◼
◾
☀
☁
☂
☃
☄
★
☆
☉
☎
☏
☐
☑
☒
☔
☕
☘
☚
☛
☜
☝
☞
☟
☠
☢
☣
☦
☩
☪
☬
☭
☮
☯
☰
☸
☹
☺
☻
☼
☽
☾
♀
♂
♆
♈
♉
♊
♋
♌
♍
♎
♏
♐
♑
♒
♓
♔
♕
♖
♗
♘
♚
♛
♞
♠
♡
♢
♣
♤
♥
♦
♧
♨
♩
♪
♫
♬
♭
♯
♰
♻
♿
⚇
⚐
⚑
⚓
⚔
⚕
⚖
⚘
⚙
⚛
⚜
⚠
⚡
⚪
⚫
⚬
⚭
⚽
⛄
⛅
⛈
⛔
⛰
⛱
⛳
⛵
⛷
✁
✂
✄
✅
✆
✈
✉
✊
✋
✌
✍
✎
✏
✐
✒
✓
✔
✕
✖
✗
✘
✚
✜
✝
✞
✟
✠
✡
✢
✣
✤
✥
✦
✧
✨
✩
✪
✫
✬
✭
✮
✯
✰
✱
✲
✳
✴
✵
✶
✷
✸
✹
✺
✻
✽
✾
✿
❀
❁
❂
❃
❄
❅
❆
❇
❈
❉
❊
❋
❌
❍
❎
❏
❐
❑
❒
❓
❕
❖
❗
❘
❙
❚
❛
❝
❞
❣
❤
❥
❦
❧
❮
❯
❰
❱
❶
❷
❸
❹
❺
➀
➁
➂
➇
➊
➋
➌
➍
➎
➏
➔
➕
➖
➘
➙
➛
➜
➝
➞
➟
➠
➡
➢
➣
➤
➥
➦
➧
➨
➩
➪
➫
➭
➮
➯
➰
➲
➳
➸
➺
➻
➽
➾
⟨
⟩
⟰
⟶
⠀
⤵
⤻
⦁
⦿
⩽
⩾
⫹
⫺
⫻
⫽
⬄
⬅
⬆
⬇
⬍
⬛
⬤
⬩
⭐
⭕
Ɀ
Ⲉ
ⲟ
⳿
⸗
⸜
⸝
⸢
⼀
　
、
。
〃
々
〆
〇
〈
〉
《
》
「
」
『
』
【
】
〒
〓
〔
〕
〖
〗
〚
〛
〜
〝
〞
〟
〰
〽
ぁ
あ
ぃ
い
ぅ
う
ぇ
え
ぉ
お
か
が
き
ぎ
く
ぐ
け
げ
こ
ご
さ
ざ
し
じ
す
ず
せ
ぜ
そ
ぞ
た
だ
ち
っ
つ
づ
て
で
と
ど
な
に
ぬ
ね
の
は
ば
ぱ
ひ
び
ぴ
ふ
ぶ
ぷ
へ
べ
ぺ
ほ
ぼ
ぽ
ま
み
む
め
も
ゃ
や
ゅ
ゆ
ょ
よ
ら
り
る
れ
ろ
ゎ
わ
ゐ
を
ん
゙
゚
゛
゜
ゝ
ゞ
ァ
ア
ィ
イ
ゥ
ウ
ェ
エ
ォ
オ
カ
ガ
キ
ギ
ク
グ
ケ
ゲ
コ
ゴ
サ
ザ
シ
ジ
ス
ズ
セ
ゼ
ソ
ゾ
タ
ダ
チ
ヂ
ッ
ツ
ヅ
テ
デ
ト
ド
ナ
ニ
ヌ
ネ
ノ
ハ
バ
パ
ヒ
ビ
ピ
フ
ブ
プ
ヘ
ベ
ペ
ホ
ボ
ポ
マ
ミ
ム
メ
モ
ャ
ヤ
ュ
ユ
ョ
ヨ
ラ
リ
ル
レ
ロ
ヮ
ワ
ヱ
ヲ
ン
ヴ
ヵ
ヶ
・
ー
ヽ
ヾ
ㄉ
ㄍ
ㄚ
ㄛ
ㄟ
ㄤ
ㄥ
ㄦ
ㄧ
ㄨ
ㄩ
ㅂ
ㅅ
ㅇ
ㅋ
ㅎ
ㅠ
ㅤ
ㆍ
㈠
㈡
㈱
㊣
㌀
㍉
㎍
㎎
㎖
㎛
㎜
㎝
㎡
㑹
㗎
㫖
㮣
㱢
㹰
一
丁
七
万
丈
三
上
下
不
与
丐
丑
专
且
丕
世
丘
丙
业
丛
东
丝
丞
丟
両
丢
两
严
並
丧
丨
个
丫
中
丰
串
临
丶
丸
丹
为
主
丼
丽
举
丿
乂
乃
久
乆
么
义
之
乌
乍
乎
乏
乐
乒
乓
乔
乖
乗
乘
乙
乜
九
乞
也
习
乡
书
乩
买
乱
乳
乾
亀
亂
了
予
争
事
二
亍
于
亏
云
互
亓
五
井
亘
亙
亚
些
亜
亞
亟
亡
亢
交
亥
亦
产
亨
亩
享
京
亭
亮
亰
亲
亳
亵
人
亾
亿
什
仁
仃
仄
仅
仆
仇
今
介
仍
从
仏
仑
仓
仔
仕
他
仗
付
仙
仝
仞
仟
仡
代
令
以
仨
仪
仫
们
仮
仰
仲
件
价
仺
任
份
仿
企
伉
伊
伍
伎
伏
伐
休
伕
众
优
伙
会
伝
伞
伟
传
伢
伤
伦
伪
伫
伯
估
伱
伴
伶
伸
伺
似
伽
佃
但
佇
佈
位
低
住
佐
佑
体
佔
何
佗
佘
余
佚
佛
作
佝
佞
佟
你
佢
佣
佤
佩
佬
佯
佰
佳
併
佶
佷
佸
佹
佺
佻
佼
佽
使
侀
侃
侄
來
侈
例
侍
侏
侑
侖
侗
侘
供
依
侠
価
侣
侥
侦
侧
侨
侪
侬
侭
侮
侯
侵
侶
侷
便
係
促
俄
俊
俎
俏
俐
俑
俗
俘
俚
保
俞
俟
俠
信
俣
俨
俩
俪
俬
俭
修
俯
俱
俳
俵
俸
俺
俾
倆
倉
個
倌
倍
倏
們
倒
倔
倖
倘
候
倚
倜
借
倡
倣
値
倦
倨
倩
倪
倫
倬
倭
倶
倹
债
值
倾
偃
假
偈
偉
偌
偎
偏
偕
做
停
健
偲
側
偵
偶
偷
偻
偽
偿
傀
傅
傈
傍
傑
傘
備
傚
傛
傜
傝
傢
傣
傥
储
傩
催
傭
傲
傳
債
傷
傻
傾
僅
僉
働
像
僑
僕
僖
僚
僞
僟
僥
僧
僭
僮
僱
僳
僵
價
僻
儀
儂
億
儆
儉
儋
儒
儕
儘
儚
償
儡
優
儲
儴
儷
儼
儿
兀
允
兂
元
兄
充
兆
兇
先
光
克
兌
免
兎
児
兑
兒
兔
兖
兗
兘
党
兜
兢
入
內
全
兩
兪
八
公
六
兮
兰
共
兲
关
兴
兵
其
具
典
兹
养
兼
兽
冀
内
円
冇
冈
冉
冊
册
再
冑
冒
冕
冖
冗
写
军
农
冠
冢
冤
冥
冦
冧
冨
冩
冪
冫
冬
冯
冰
冱
冲
决
冴
况
冶
冷
冻
冼
冽
净
凄
准
凇
凈
凉
凋
凌
凍
减
凑
凛
凜
凝
几
凡
凤
処
凧
凪
凫
凭
凯
凰
凱
凳
凶
凸
凹
出
击
凼
函
凿
刀
刁
刃
分
切
刈
刊
刍
刎
刑
划
列
刘
则
刚
创
初
删
判
別
刨
利
刪
别
刮
到
制
刷
券
刹
刺
刻
刽
剁
剂
剃
則
剉
削
剋
剌
前
剎
剐
剑
剔
剖
剛
剜
剝
剣
剤
剥
剧
剩
剪
副
剰
剱
割
創
剽
剿
劃
劇
劈
劉
劍
劏
劑
劔
力
劝
办
功
加
务
劣
动
助
努
劫
劭
励
劲
劳
労
劵
効
劾
势
勁
勃
勅
勇
勉
勋
勐
勒
動
勖
勘
務
勛
勝
勞
募
勢
勤
勧
勪
勫
勬
勭
勮
勯
勲
勳
勵
勸
勹
勺
勻
勾
勿
匀
匁
匂
包
匆
匈
匍
匐
匕
化
北
匙
匝
匠
匡
匣
匪
匮
匯
匱
匹
区
医
匾
匿
區
十
千
卅
升
午
卉
半
卍
华
协
卐
卑
卒
卓
協
单
卖
南
単
博
卜
卝
卞
卟
占
卡
卢
卤
卦
卧
卫
卮
卯
印
危
即
却
卵
卷
卸
卻
卽
卿
厂
厄
厅
历
厉
压
厌
厍
厕
厘
厚
厝
原
厠
厢
厥
厦
厨
厩
厭
厮
厯
厲
厳
厶
去
县
叁
参
參
又
叉
及
友
双
反
収
叏
发
叒
叔
叕
取
受
变
叙
叛
叟
叠
叡
叢
口
古
句
另
叧
叨
叩
只
叫
召
叭
叮
可
台
叱
史
右
叵
叶
号
司
叹
叻
叼
叽
吁
吃
各
吆
合
吉
吊
吋
同
名
后
吏
吐
向
吒
吓
吕
吖
吗
君
吝
吞
吟
吠
吡
吥
否
吧
吨
吩
含
听
吭
吮
启
吱
吲
吳
吴
吵
吶
吸
吹
吻
吼
吽
吾
呀
呂
呃
呆
呈
呉
告
呋
呎
呐
呑
呓
呕
呗
员
呛
呜
呟
呢
呤
呦
周
呪
呭
呮
呱
呲
味
呵
呷
呸
呻
呼
命
咀
咁
咂
咄
咆
咋
和
咎
咏
咐
咒
咔
咕
咖
咗
咘
咙
咚
咛
咣
咤
咥
咦
咧
咨
咩
咪
咫
咬
咭
咯
咱
咲
咳
咸
咻
咽
咿
哀
品
哂
哄
哆
哇
哈
哉
哋
哌
响
哎
哏
哐
哑
哒
哔
哗
哚
哝
哟
員
哥
哦
哧
哨
哩
哪
哭
哮
哲
哺
哼
哽
唁
唄
唆
唇
唉
唏
唐
唑
唔
唖
唛
唠
唢
唤
唧
唬
售
唯
唰
唱
唳
唵
唷
唸
唾
啃
啄
商
啉
啊
問
啓
啕
啖
啜
啞
啟
啡
啤
啥
啦
啧
啪
啫
啬
啮
啰
啱
啲
啵
啶
啸
啻
啼
啾
喀
喂
喃
善
喆
喇
喉
喊
喋
喎
喏
喔
喘
喙
喚
喜
喝
喟
喧
喩
喪
喫
喬
單
喰
喱
喲
喳
喵
営
喷
喹
喺
喻
喽
嗅
嗆
嗇
嗎
嗑
嗒
嗓
嗔
嗕
嗖
嗗
嗘
嗙
嗚
嗜
嗝
嗟
嗡
嗣
嗤
嗦
嗨
嗪
嗬
嗯
嗰
嗲
嗳
嗶
嗷
嗽
嘀
嘅
嘆
嘈
嘉
嘌
嘍
嘎
嘔
嘖
嘗
嘘
嘚
嘛
嘞
嘟
嘢
嘣
嘤
嘧
嘩
嘭
嘯
嘰
嘱
嘲
嘴
嘶
嘹
嘻
嘿
噁
噂
噌
噎
噓
噔
噗
噙
噛
噜
噠
噢
噤
器
噩
噪
噫
噬
噱
噴
噶
噸
噹
噺
噻
噼
嚀
嚇
嚎
嚏
嚐
嚓
嚕
嚙
嚜
嚟
嚢
嚣
嚥
嚨
嚭
嚮
嚯
嚴
嚷
嚼
囀
囁
囂
囃
囉
囊
囍
囑
囔
囗
囚
四
囝
回
囟
因
囡
团
団
囤
囧
囪
囫
园
囮
囯
困
囱
囲
図
围
囵
囹
固
国
图
囿
圀
圃
圄
圆
圈
國
圍
圏
園
圓
圖
團
圜
土
圣
圦
圧
在
圩
圭
地
圳
场
圻
圾
址
坂
均
坊
坍
坎
坏
坐
坑
块
坚
坛
坝
坞
坟
坠
坡
坤
坦
坨
坩
坪
坭
坯
坳
坷
坻
垂
垃
垄
垅
型
垒
垓
垚
垛
垜
垠
垢
垣
垦
垩
垫
垭
垮
垵
埂
埃
埋
埌
城
埒
埔
埕
埗
埚
埜
域
埠
埤
埭
埴
埵
執
埸
培
基
埼
堀
堂
堃
堅
堆
堇
堉
堑
堕
堙
堝
堟
堡
堣
堤
堪
堯
堰
報
場
堵
堺
堿
塀
塁
塊
塌
塑
塔
塗
塘
塙
塚
塞
塢
塩
填
塬
塵
塹
塾
境
墅
墉
墊
墒
墓
増
墙
墜
增
墟
墠
墨
墩
墮
墳
墻
墾
壁
壅
壆
壇
壊
壌
壑
壓
壕
壘
壞
壟
壢
壤
壩
士
壬
壮
壯
声
壱
売
壳
壶
壷
壹
壺
壽
处
备
変
夊
夋
夌
复
夎
夏
夐
夔
夕
外
夙
多
夜
够
夠
夢
夥
大
天
太
夫
夭
央
夯
失
头
夷
夸
夹
夺
夾
奂
奄
奇
奈
奉
奋
奎
奏
奐
契
奔
奕
奖
套
奘
奚
奠
奢
奥
奧
奨
奪
奬
奭
奮
女
奴
奶
奸
她
好
如
妃
妄
妆
妇
妈
妊
妍
妒
妓
妖
妗
妙
妝
妞
妣
妤
妥
妨
妩
妪
妫
妬
妮
妯
妲
妳
妹
妻
妾
姆
姉
姊
始
姍
姐
姑
姒
姓
委
姗
姘
姚
姜
姝
姣
姥
姦
姨
姩
姪
姫
姬
姶
姹
姻
姿
威
娃
娄
娅
娆
娇
娉
娌
娑
娓
娘
娛
娜
娟
娠
娣
娥
娩
娯
娱
娲
娴
娶
娼
婀
婁
婂
婃
婄
婆
婇
婉
婊
婕
婚
婢
婦
婧
婪
婭
婳
婴
婵
婶
婷
婺
婿
媒
媚
媛
媲
媳
媽
嫀
嫁
嫂
嫉
嫌
嫔
嫖
嫘
嫚
嫡
嫣
嫦
嫩
嫻
嬅
嬉
嬌
嬗
嬛
嬢
嬤
嬩
嬪
嬫
嬬
嬰
嬲
嬴
嬷
嬸
嬿
孀
孃
子
孑
孒
孔
孕
孖
字
存
孙
孚
孛
孜
孝
孟
孢
季
孤
孥
学
孩
孪
孫
孬
孰
孱
孳
孵
學
孺
孽
宀
宁
它
宅
宇
守
安
宋
完
宍
宏
宓
宕
宗
官
宙
定
宛
宜
宝
实
実
宠
审
客
宣
室
宥
宦
宪
宫
宮
宰
害
宴
宵
家
宸
容
宽
宾
宿
寂
寄
寅
密
寇
富
寐
寒
寓
寔
寘
寛
寜
寝
寞
察
寡
寢
寤
寥
實
寧
寨
審
寫
寬
寮
寰
寳
寵
寶
寸
对
寺
寻
导
対
寿
封
専
射
将
將
專
尉
尊
尋
對
導
小
少
尒
尔
尕
尖
尘
尙
尚
尝
尤
尧
尪
尬
尰
就
尴
尷
尸
尹
尺
尻
尼
尽
尾
尿
局
屁
层
居
屆
屈
屉
届
屋
屍
屎
屏
屐
屑
屓
展
屜
属
屠
屡
屢
層
履
屬
屮
屯
山
屹
屼
屽
屾
屿
岀
岁
岂
岃
岄
岌
岐
岑
岔
岖
岗
岘
岙
岚
岛
岡
岢
岩
岫
岬
岭
岱
岳
岷
岸
岿
峁
峄
峇
峋
峒
峙
峠
峡
峤
峥
峦
峨
峪
峭
峯
峰
峴
島
峻
峽
崁
崂
崃
崆
崇
崎
崑
崔
崖
崗
崙
崛
崢
崧
崩
崭
崮
崴
崽
嵂
嵇
嵊
嵋
嵌
嵐
嵗
嵘
嵜
嵩
嵬
嵯
嶂
嶄
嶅
嶆
嶇
嶈
嶋
嶌
嶙
嶮
嶸
嶺
嶼
嶽
巅
巌
巍
巒
巔
巖
巛
川
州
巡
巢
巣
工
左
巧
巨
巩
巫
差
己
已
巳
巴
巷
巻
巽
巾
巿
币
市
布
帅
帆
师
希
帐
帑
帕
帖
帘
帚
帛
帜
帝
帥
带
帧
師
席
帮
帯
帰
帳
帶
帷
常
帼
帽
幀
幂
幄
幅
幇
幌
幔
幕
幟
幡
幢
幣
幫
干
平
年
幵
并
幷
幸
幹
幺
幻
幼
幽
幾
广
庁
広
庄
庆
庇
床
序
庐
库
应
底
庖
店
庙
庚
府
庝
庞
废
庠
庡
庢
度
座
庫
庭
庵
庶
康
庸
庹
庾
廁
廂
廃
廈
廉
廊
廓
廖
廚
廛
廝
廟
廠
廢
廣
廪
廬
廳
廴
延
廷
建
廻
廿
开
弁
异
弃
弄
弈
弉
弊
弋
弌
式
弐
弑
弓
弔
引
弗
弘
弛
弟
张
弥
弦
弧
弩
弭
弯
弱
張
強
弹
强
弼
弾
彀
彂
彅
彈
彊
彌
彎
归
当
录
彗
彘
彙
彝
彡
形
彤
彥
彦
彧
彩
彪
彫
彬
彭
彰
影
彲
彳
彷
役
彻
彼
彿
往
征
徃
径
待
徇
很
徉
徊
律
後
徐
徑
徒
従
徕
得
徘
徙
徜
從
徠
御
徨
復
循
微
徳
徴
徵
德
徹
徽
心
必
忆
忌
忍
忏
忐
忑
忒
忓
忔
忖
志
忘
忙
応
忠
忡
忤
忧
忪
快
忱
念
忻
忽
忿
怀
态
怂
怅
怆
怎
怏
怒
怔
怕
怖
怙
怜
思
怠
怡
急
怦
性
怨
怪
怯
怵
总
怼
恁
恂
恃
恆
恋
恍
恐
恒
恕
恙
恚
恢
恣
恤
恥
恨
恩
恪
恫
恬
恭
息
恰
恳
恵
恶
恸
恺
恻
恼
恽
恿
悄
悅
悉
悊
悌
悍
悔
悖
悚
悟
悠
患
悦
您
悩
悪
悬
悯
悱
悲
悴
悵
悶
悸
悻
悼
情
惆
惇
惊
惋
惑
惕
惘
惚
惜
惟
惠
惡
惣
惦
惧
惨
惩
惫
惬
惭
惮
惯
惰
惱
想
惴
惶
惹
惺
愁
愈
愉
愍
意
愕
愚
愛
愜
感
愣
愤
愧
愫
愬
愭
愴
愷
愼
愿
慄
慈
態
慌
慎
慑
慕
慘
慚
慜
慟
慢
慣
慧
慨
慫
慮
慰
慳
慵
慶
慷
慾
憂
憊
憋
憍
憎
憐
憑
憔
憚
憤
憧
憨
憩
憫
憬
憲
憶
憾
懂
懇
懈
應
懊
懋
懐
懒
懟
懦
懲
懵
懶
懷
懸
懺
懼
懾
懿
戀
戈
戊
戌
戍
戎
戏
成
我
戒
戕
或
战
戚
戛
戜
戝
戞
戟
戠
戣
戦
截
戬
戮
戯
戰
戲
戳
戴
戶
户
戸
戻
戾
房
所
扁
扇
扈
扉
手
才
扎
扑
扒
打
扔
払
托
扛
扣
扦
执
扩
扪
扫
扬
扭
扮
扯
扰
扱
扳
扶
批
扼
找
承
技
抄
抉
把
抑
抒
抓
投
抖
抗
折
抚
抛
抜
択
抠
抡
抢
护
报
抨
披
抬
抱
抵
抹
押
抽
抿
拂
拄
担
拆
拇
拈
拉
拋
拌
拍
拎
拐
拒
拓
拔
拖
拗
拘
拙
拚
招
拜
拝
拟
拠
拡
拢
拣
拥
拦
拧
拨
择
括
拭
拮
拯
拰
拱
拳
拴
拵
拶
拷
拼
拽
拾
拿
持
挂
指
挈
按
挎
挑
挖
挙
挚
挛
挝
挞
挟
挠
挡
挣
挤
挥
挨
挪
挫
振
挹
挺
挽
挾
挿
捂
捅
捆
捉
捋
捌
捍
捎
捏
捐
捕
捗
捜
捞
损
捡
换
捣
捧
捨
捩
捭
据
捱
捲
捶
捷
捺
捻
掀
掂
掃
掇
授
掉
掌
掏
掐
排
掖
掘
掙
掛
掟
掠
採
探
掣
接
控
推
掩
措
掬
掮
掰
掲
掳
掴
掷
掸
掺
掻
揀
揃
揄
揆
揉
揍
描
提
插
揖
揚
換
握
揣
揩
揪
揭
揮
援
揶
揸
揹
揺
揽
搀
搁
搂
搅
搆
損
搏
搐
搓
搔
搖
搗
搜
搞
搡
搦
搧
搪
搬
搭
搴
搵
搶
携
搽
搾
摁
摂
摄
摆
摇
摈
摊
摒
摔
摘
摞
摟
摧
摩
摯
摳
摸
摹
摺
摻
撂
撃
撅
撇
撈
撐
撑
撒
撓
撕
撚
撞
撤
撥
撩
撫
撬
播
撮
撰
撲
撳
撵
撷
撸
撹
撻
撼
撾
撿
擀
擁
擂
擄
擅
擇
擊
擋
操
擎
擒
擔
擘
據
擞
擠
擢
擦
擧
擬
擰
擱
擲
擴
擷
擺
擼
擾
攀
攏
攒
攔
攘
攙
攜
攝
攞
攢
攣
攤
攥
攪
攫
攬
支
收
攷
攸
改
攻
放
政
故
效
敌
敎
敏
救
敓
敕
敖
敗
敘
教
敛
敝
敞
敢
散
敤
敦
敬
数
敲
整
敵
敷
數
斂
斃
文
斉
斋
斌
斎
斐
斑
斓
斗
料
斛
斜
斟
斡
斤
斥
斧
斩
斫
斬
断
斯
新
斷
方
於
施
斿
旁
旂
旃
旅
旋
旌
旎
族
旖
旗
旛
无
既
旣
日
旦
旧
旨
早
旬
旭
旮
旯
旱
旳
时
旷
旸
旺
旻
旼
昀
昂
昆
昇
昉
昊
昌
明
昏
易
昔
昕
昙
星
映
春
昧
昨
昭
是
昱
昴
昵
昶
昼
显
晁
時
晃
晉
晋
晌
晏
晒
晓
晔
晕
晖
晗
晚
晝
晞
晟
晤
晦
晧
晨
晩
普
景
晰
晴
晶
晷
智
晾
暁
暂
暄
暇
暈
暉
暌
暐
暑
暖
暗
暝
暢
暦
暧
暨
暫
暮
暱
暴
暹
曄
曆
曇
曉
曌
曖
曙
曜
曝
曠
曡
曦
曩
曬
曰
曱
曲
曳
更
書
曹
曺
曼
曽
曾
替
最
會
月
有
朋
服
朐
朔
朕
朗
望
朝
期
朦
朧
木
未
末
本
札
朮
术
朱
朴
朵
机
朽
杀
杂
权
杆
杈
杉
李
杏
材
村
杓
杖
杜
杞
束
杠
条
杢
来
杨
杩
杭
杯
杰
東
杲
杳
杵
杷
杼
松
板
极
构
枇
枉
枋
析
枓
枕
林
枚
果
枝
枞
枠
枡
枢
枣
枥
枪
枫
枭
枯
枰
枱
枳
架
枷
枸
柄
柊
柏
某
柑
染
柔
柘
柚
柜
柞
柟
柠
柢
查
柩
柬
柯
柱
柳
柴
柵
査
柾
柿
栀
栁
栂
栃
栄
栅
标
栈
栉
栋
栎
栏
树
栓
栖
栗
栞
校
栢
栧
栩
株
栫
样
核
根
格
栽
栾
桀
桁
桂
桃
桅
框
案
桉
桌
桎
桐
桑
桓
桔
桜
桝
桟
桠
桡
桢
档
桥
桦
桧
桨
桩
桶
桿
梁
梅
梆
梏
梓
梗
條
梟
梠
梢
梦
梧
梨
梭
梯
械
梱
梳
梵
梶
检
棂
棄
棉
棋
棍
棒
棕
棗
棘
棚
棟
棠
棣
棧
森
棰
棱
棲
棵
棹
棺
椀
椁
椂
椅
椋
植
椎
椒
椛
検
椤
椭
椰
椴
椹
椽
椿
楀
楂
楊
楓
楔
楕
楚
楝
楞
楠
楡
楢
楣
楦
楨
楫
業
楮
楯
楳
極
楷
楸
楹
楼
楽
概
榄
榆
榈
榉
榊
榎
榔
榕
榖
榛
榜
榧
榨
榫
榭
榮
榱
榴
榷
榻
槁
槃
槇
構
槌
槍
槎
槐
槑
槓
様
槙
槛
槟
槤
槭
槲
槳
槸
槻
槽
槿
樁
樂
樊
樋
樑
樓
樗
樘
標
樞
樟
模
樣
樨
権
横
樫
樯
樱
樵
樸
樹
樺
樻
樽
樾
橄
橇
橈
橋
橐
橘
橙
機
橡
橢
橥
橫
橱
橹
橼
橿
檀
檄
檎
檐
檔
檗
檚
檜
檢
檩
檬
檯
檳
檸
檻
櫂
櫃
櫌
櫓
櫚
櫛
櫥
櫻
欄
欅
權
欎
欏
欐
欒
欖
欝
欠
次
欢
欣
欤
欧
欲
欸
欺
欽
款
歆
歇
歉
歌
歎
歐
歓
歙
歟
歡
止
正
此
步
武
歧
歩
歪
歯
歲
歳
歴
歷
歸
歹
死
歼
殁
殃
殄
殆
殇
殉
殊
残
殑
殒
殓
殖
殘
殡
殤
殭
殯
殲
殴
段
殷
殺
殻
殼
殿
毀
毁
毂
毅
毆
毋
母
毎
每
毒
毓
比
毕
毖
毗
毘
毙
毛
毡
毫
毬
毯
毽
氈
氏
氐
民
氓
气
氖
気
氙
氛
氟
氡
氢
氣
氤
氦
氧
氨
氩
氪
氫
氬
氭
氮
氯
氰
氱
氲
氳
水
氷
永
氹
氾
汀
汁
求
汆
汇
汉
汊
汎
汏
汐
汕
汗
汙
汚
汛
汜
汝
汞
江
池
污
汤
汨
汩
汪
汰
汲
汴
汶
汹
決
汽
汾
沁
沂
沃
沅
沆
沈
沉
沌
沏
沐
沒
沓
沔
沖
沙
沛
沟
没
沢
沣
沤
沥
沦
沧
沪
沫
沭
沮
沱
河
沸
油
治
沼
沽
沾
沿
況
泄
泅
泉
泊
泌
泓
泔
法
泗
泛
泞
泠
泡
波
泣
泥
注
泪
泫
泮
泯
泰
泱
泳
泵
泷
泸
泻
泼
泽
泾
洁
洄
洋
洌
洒
洗
洙
洛
洞
津
洧
洩
洪
洮
洱
洲
洵
洶
洸
洹
活
洼
洽
派
流
浃
浄
浅
浆
浇
浉
浊
测
济
浏
浐
浑
浒
浓
浔
浗
浙
浚
浜
浠
浣
浦
浩
浪
浬
浮
浴
海
浸
浼
涂
涅
涇
消
涉
涌
涎
涓
涔
涕
涘
涙
涛
涜
涝
涞
涟
涠
涡
涣
涤
润
涧
涨
涩
涪
涮
涯
液
涵
涸
涼
涿
淀
淄
淅
淆
淇
淋
淌
淑
淒
淖
淘
淙
淚
淝
淞
淡
淤
淦
淨
淩
淪
淫
淬
淮
深
淳
淵
混
淸
淹
淺
添
淼
清
渇
済
渉
渊
渋
渌
渍
渎
渐
渑
渓
渔
渕
渗
渚
減
渝
渠
渡
渣
渤
渥
渦
温
測
渭
港
渲
渴
渶
游
渺
渾
湁
湃
湄
湊
湍
湎
湖
湘
湛
湜
湟
湡
湧
湪
湫
湮
湯
湳
湴
湾
湿
満
溃
溅
溆
溉
溏
源
準
溜
溝
溟
溢
溥
溧
溪
溫
溯
溱
溴
溶
溺
溼
滀
滁
滂
滃
滄
滅
滆
滇
滉
滋
滌
滑
滓
滔
滕
滘
滙
滚
滝
滞
滟
满
滢
滤
滥
滦
滨
滩
滬
滯
滲
滴
滷
滸
滾
滿
漁
漂
漆
漉
漏
漑
漓
演
漕
漠
漢
漣
漩
漪
漫
漬
漯
漱
漲
漳
漸
漾
漿
潁
潅
潇
潋
潍
潑
潔
潘
潛
潜
潞
潟
潢
潤
潦
潭
潮
潰
潴
潵
潸
潺
潼
澀
澁
澄
澆
澈
澍
澎
澗
澜
澡
澤
澧
澪
澱
澳
澶
澹
激
濁
濂
濃
濆
濇
濉
濊
濑
濒
濕
濛
濞
濟
濠
濡
濤
濫
濬
濮
濯
濰
濱
濵
濺
濾
瀆
瀉
瀋
瀏
瀑
瀕
瀘
瀚
瀛
瀝
瀞
瀟
瀧
瀨
瀬
瀰
瀵
瀹
瀾
灌
灏
灑
灘
灞
灣
火
灬
灭
灯
灰
灵
灶
灸
灼
災
灾
灿
炀
炁
炅
炉
炊
炎
炒
炔
炕
炖
炙
炜
炝
炤
炫
炬
炭
炮
炯
炲
炳
炷
炸
点
為
炼
炽
烁
烂
烃
烈
烊
烏
烘
烙
烛
烟
烤
烦
烧
烨
烩
烫
烬
热
烯
烴
烷
烹
烽
焉
焊
焓
焔
焕
焖
焗
焘
焙
焚
無
焦
焯
焰
焱
然
焼
煅
煉
煊
煌
煎
煒
煕
煙
煜
煞
煡
煤
煥
煦
照
煨
煩
煮
煲
煸
煽
熄
熊
熏
熒
熔
熙
熟
熠
熨
熬
熱
熵
熷
熸
熹
熺
熻
熾
燁
燃
燈
燉
燊
燎
燐
燒
燔
燕
燗
燙
燚
燜
營
燥
燦
燧
燭
燮
燴
燵
燻
燼
燿
爆
爍
爐
爛
爨
爪
爬
爭
爰
爱
爲
爵
父
爷
爸
爹
爺
爻
爽
爾
牀
牆
片
版
牌
牍
牒
牙
牛
牝
牟
牠
牡
牢
牦
牧
物
牯
牲
牴
牵
特
牺
牽
犀
犁
犄
犇
犊
犍
犒
犟
犠
犢
犧
犬
犯
犲
状
犷
犸
犹
狀
狂
狄
狆
狈
狍
狎
狐
狒
狗
狙
狛
狞
狠
狡
狢
狩
独
狭
狮
狰
狱
狸
狹
狻
狼
狽
猊
猎
猓
猕
猖
猗
猛
猜
猝
猟
猥
猩
猪
猫
猬
献
猴
猶
猷
猾
猿
獄
獅
獎
獏
獐
獒
獗
獠
獣
獨
獭
獰
獲
獵
獸
獺
獻
獼
獾
玄
率
玉
王
玎
玑
玖
玛
玟
玠
玥
玩
玫
玭
玮
环
现
玲
玳
玷
玺
玻
珀
珂
珅
珈
珉
珊
珍
珏
珐
珑
珙
珞
珠
珣
珥
珩
珪
班
珮
珲
珺
現
球
琅
理
琇
琉
琊
琍
琏
琐
琚
琛
琢
琥
琦
琨
琪
琬
琮
琰
琲
琳
琴
琵
琶
琺
琼
瑀
瑁
瑄
瑋
瑕
瑗
瑙
瑚
瑛
瑜
瑞
瑟
瑠
瑣
瑤
瑩
瑪
瑯
瑰
瑶
瑷
瑾
璀
璁
璃
璇
璉
璋
璎
璐
璘
璜
璞
璟
璠
璣
璧
璨
環
璺
璽
瓊
瓏
瓒
瓔
瓙
瓜
瓠
瓢
瓣
瓤
瓦
瓮
瓯
瓴
瓶
瓷
瓿
甄
甑
甕
甘
甙
甚
甜
生
產
産
甥
甦
用
甩
甫
甬
甭
甯
田
由
甲
申
甴
电
男
甸
町
画
甾
畀
畅
畈
界
畏
畑
畔
留
畜
畝
畠
畢
略
畦
畧
番
畫
異
畲
畳
畴
畵
當
畷
畸
畹
畿
疃
疆
疇
疊
疋
疎
疏
疑
疖
疗
疙
疚
疝
疟
疡
疣
疤
疥
疫
疮
疯
疱
疲
疳
疴
疵
疸
疹
疼
疽
疾
痂
病
症
痈
痉
痊
痍
痒
痔
痕
痘
痙
痛
痞
痠
痢
痣
痤
痧
痨
痩
痪
痫
痰
痱
痴
痹
痺
痼
痿
瘀
瘁
瘋
瘍
瘓
瘘
瘙
瘟
瘠
瘡
瘢
瘤
瘦
瘩
瘪
瘫
瘴
瘸
瘻
瘾
癀
療
癇
癌
癒
癖
癘
癜
癞
癡
癢
癣
癥
癪
癫
癬
癮
癱
癲
癶
癸
発
登
發
白
百
皂
的
皆
皇
皈
皋
皎
皐
皑
皓
皖
皙
皮
皱
皴
皺
皿
盂
盃
盅
盆
盈
益
盎
盏
盐
监
盒
盔
盖
盗
盘
盛
盜
盞
盟
盡
監
盤
盥
盧
盪
目
盯
盱
盲
直
相
盹
盼
盾
省
眈
眉
看
県
眙
眞
真
眠
眦
眨
眩
眯
眶
眷
眸
眺
眼
眾
着
睁
睇
睐
睑
睚
睛
睜
睞
睡
睢
督
睥
睦
睨
睪
睫
睬
睹
睽
睾
睿
瞄
瞅
瞇
瞋
瞌
瞎
瞑
瞒
瞓
瞞
瞟
瞠
瞥
瞧
瞩
瞪
瞬
瞭
瞰
瞳
瞻
瞼
瞿
矇
矍
矗
矚
矛
矜
矢
矣
知
矩
矫
短
矮
矯
石
矶
矸
矽
矾
矿
砀
码
砂
砌
砍
砒
研
砕
砖
砚
砜
砝
砟
砣
砥
砦
砧
砭
砰
砲
破
砷
砸
砺
砻
砼
砾
础
硅
硌
硎
硏
硐
硒
硕
硚
硝
硫
硬
确
硯
硼
碁
碇
碉
碌
碍
碎
碑
碓
碗
碘
碚
碛
碜
碟
碣
碧
碩
碰
碱
碲
碳
碴
確
碼
碾
磁
磅
磊
磋
磐
磔
磕
磙
磚
磡
磨
磬
磯
磴
磷
磺
礁
礎
礙
礡
礦
礪
礫
礴
示
礼
社
祀
祁
祂
祇
祈
祉
祎
祐
祓
祕
祖
祗
祚
祛
祜
祝
神
祟
祠
祢
祥
票
祫
祭
祯
祷
祸
祺
祿
禀
禁
禄
禅
禊
禍
禎
福
禛
禦
禧
禪
禮
禰
禱
禹
禺
离
禽
禾
禿
秀
私
秃
秆
秉
秋
种
科
秒
秘
秝
租
秣
秤
秦
秧
秩
秭
积
称
秸
移
秽
稀
稂
稅
稈
程
稍
税
稔
稗
稚
稜
稞
稟
稠
稣
種
稱
稲
稳
稷
稹
稻
稼
稽
稿
穀
穂
穆
穌
積
穎
穏
穐
穑
穗
穝
穡
穢
穣
穦
穩
穫
穰
穴
究
穷
穹
空
穿
突
窃
窄
窈
窍
窑
窒
窓
窕
窖
窗
窘
窜
窝
窟
窠
窥
窦
窨
窩
窪
窮
窯
窺
窿
竄
竅
竇
竈
竊
立
竒
竖
站
竜
竞
竟
章
竣
童
竦
竪
竭
端
竴
競
竹
竺
竽
竿
笂
笃
笄
笅
笆
笈
笉
笊
笋
笏
笑
笔
笙
笛
笞
笟
笠
笥
符
笨
笫
第
笳
笹
笺
笼
筆
筈
等
筋
筍
筏
筐
筑
筒
答
策
筚
筛
筜
筝
筠
筦
筧
筮
筱
筵
筷
筹
筼
签
简
箅
箇
箋
箍
箏
箐
箒
箓
箔
箕
算
管
箩
箪
箫
箬
箭
箱
箴
箸
節
篁
範
篆
篇
築
篑
篓
篙
篝
篠
篡
篤
篦
篩
篪
篭
篮
篱
篷
篾
簀
簇
簋
簌
簟
簡
簧
簪
簫
簬
簷
簸
簽
簾
簿
籁
籃
籌
籍
籐
籔
籟
籠
籤
籬
籲
米
类
籼
籽
籾
粉
粋
粑
粒
粕
粗
粘
粛
粟
粡
粤
粥
粧
粪
粮
粱
粲
粳
粵
粹
粼
粽
精
粿
糀
糅
糊
糍
糕
糖
糗
糙
糜
糞
糟
糠
糧
糬
糯
糰
糸
糺
系
糾
紀
紂
約
紅
紆
紊
紋
納
紐
紒
紓
純
紗
紘
紙
級
紛
紝
素
紡
索
紧
紫
紬
紮
累
細
紳
紵
紹
紺
終
絃
組
絆
経
結
絕
絞
絡
絢
絣
給
絨
絮
統
絲
絳
絵
絶
絹
絽
綁
綉
綋
綏
經
綔
継
続
綜
綠
綢
綦
綫
綬
維
綱
網
綴
綵
綸
綺
綻
綽
綾
綿
緊
緋
総
緑
緒
緘
線
緝
緞
締
緣
編
緩
緬
緯
練
緹
緻
縁
縄
縈
縋
縛
縞
縣
縦
縫
縮
縱
縷
縺
總
績
繁
繃
繆
繇
繊
繋
繍
織
繕
繖
繘
繚
繝
繞
繡
繧
繩
繪
繫
繭
繰
繳
繹
繼
繽
纂
續
纏
纓
纔
纖
纜
纠
红
纣
纤
约
级
纨
纪
纫
纬
纭
纯
纰
纱
纲
纳
纵
纶
纷
纸
纹
纺
纽
纾
线
绀
练
组
绅
细
织
终
绉
绊
绌
绍
绎
经
绑
绒
结
绔
绕
绗
绘
给
绚
绛
络
绝
绞
统
绠
绡
绢
绣
绥
绦
继
绩
绪
绫
续
绮
绯
绰
绳
维
绵
绶
绷
绸
绻
综
绽
绾
绿
缀
缁
缂
缃
缄
缅
缆
缇
缈
缉
缎
缓
缔
缕
编
缘
缙
缚
缜
缝
缠
缢
缤
缥
缦
缨
缩
缪
缬
缭
缮
缰
缱
缴
缶
缸
缺
缽
罂
罄
罅
罍
罐
网
罒
罔
罕
罗
罘
罚
罠
罡
罢
罩
罪
罫
置
罰
署
罵
罷
罹
羁
羅
羆
羈
羊
羌
美
羔
羚
羞
羟
羡
羣
群
羧
羨
義
羯
羰
羲
羸
羹
羽
羿
翀
翁
翅
翊
翌
翎
習
翔
翘
翟
翠
翡
翦
翩
翰
翱
翳
翹
翻
翼
耀
老
考
耄
者
耆
耋
而
耍
耐
耒
耕
耗
耘
耙
耦
耨
耳
耶
耷
耸
耻
耽
耿
聂
聆
聊
聋
职
聒
联
聖
聘
聚
聞
聡
聩
聪
聯
聰
聲
聳
聴
聶
職
聽
聾
聿
肃
肄
肅
肆
肇
肉
肋
肌
肓
肖
肘
肚
肛
肝
肟
肠
股
肢
肤
肥
肩
肪
肮
肯
肱
育
肴
肺
肼
肽
肾
肿
胀
胁
胃
胄
胆
背
胍
胎
胖
胗
胚
胛
胜
胝
胞
胡
胤
胥
胧
胫
胭
胯
胰
胱
胳
胴
胶
胸
胺
能
脂
脅
脆
脇
脈
脉
脊
脍
脏
脐
脑
脓
脖
脘
脚
脛
脩
脫
脯
脱
脲
脳
脸
脹
脾
脿
腆
腈
腊
腋
腌
腎
腐
腑
腓
腔
腕
腥
腦
腩
腫
腭
腮
腰
腱
腳
腴
腸
腹
腺
腻
腼
腾
腿
膀
膈
膊
膏
膑
膘
膚
膛
膜
膝
膠
膣
膦
膨
膩
膳
膵
膺
膻
膽
膾
膿
臀
臂
臃
臆
臉
臊
臍
臓
臘
臟
臣
臥
臧
臨
自
臬
臭
至
致
臺
臻
臼
臾
舀
舂
舅
舆
與
興
舉
舊
舌
舍
舎
舐
舒
舔
舖
舗
舘
舛
舜
舞
舟
舣
舩
航
舫
般
舰
舱
舵
舶
舷
舸
船
舺
艇
艋
艘
艙
艤
艦
艮
良
艰
艱
色
艳
艶
艷
艸
艹
艺
艾
艿
节
芃
芈
芊
芋
芍
芎
芒
芗
芘
芙
芜
芝
芡
芣
芥
芦
芨
芩
芪
芫
芬
芭
芮
芯
芰
花
芳
芷
芸
芹
芻
芽
芾
苁
苄
苅
苇
苋
苍
苎
苏
苑
苒
苓
苔
苕
苗
苛
苜
苞
苟
苡
苣
若
苦
苫
苯
英
苴
苷
苹
苺
苻
苾
茁
茂
范
茄
茅
茉
茌
茎
茏
茗
茜
茧
茨
茫
茬
茭
茯
茱
茲
茴
茵
茶
茸
茹
茼
荀
荃
荆
草
荊
荏
荐
荒
荔
荖
荘
荚
荞
荟
荠
荡
荣
荤
荥
荧
荨
荩
荪
荫
药
荳
荷
荸
荻
荼
荽
莅
莆
莉
莊
莎
莒
莓
莖
莘
莜
莞
莠
莢
莨
莪
莫
莱
莲
莳
莴
获
莹
莺
莽
菀
菁
菅
菇
菈
菊
菌
菏
菓
菖
菘
菜
菟
菠
菡
菩
菫
華
菰
菱
菲
菴
菸
菽
萁
萃
萄
萊
萋
萌
萍
萎
萘
萜
萝
萤
营
萦
萧
萨
萩
萬
萱
萸
萼
落
葆
葉
著
葚
葛
葡
董
葦
葩
葫
葬
葭
葯
葱
葳
葵
葷
葺
蒂
蒋
蒌
蒐
蒔
蒗
蒙
蒜
蒞
蒟
蒡
蒨
蒯
蒲
蒸
蒹
蒻
蒼
蒽
蒿
蓁
蓄
蓆
蓉
蓋
蓐
蓑
蓓
蓖
蓝
蓟
蓥
蓦
蓬
蓮
蓼
蓿
蔑
蔓
蔔
蔗
蔘
蔚
蔡
蔣
蔥
蔦
蔫
蔬
蔭
蔵
蔷
蔺
蔻
蔼
蔽
蕁
蕃
蕈
蕉
蕊
蕎
蕗
蕙
蕤
蕨
蕩
蕪
蕭
蕲
蕴
蕾
薄
薅
薇
薈
薊
薏
薑
薔
薗
薙
薛
薦
薨
薩
薪
薫
薬
薮
薯
薰
薹
藁
藉
藍
藏
藐
藓
藕
藜
藝
藤
藥
藩
藪
藹
藺
藻
藿
蘅
蘆
蘇
蘊
蘋
蘑
蘖
蘭
蘸
蘿
虎
虏
虐
虑
虔
處
虚
虛
虜
虞
號
虢
虧
虫
虬
虱
虹
虻
虽
虾
蚀
蚁
蚂
蚊
蚌
蚓
蚕
蚜
蚝
蚣
蚤
蚧
蚩
蚪
蚬
蚯
蚱
蚵
蛀
蛄
蛆
蛇
蛉
蛊
蛋
蛍
蛎
蛏
蛐
蛔
蛙
蛛
蛟
蛤
蛭
蛮
蛯
蛰
蛳
蛸
蛹
蛻
蛾
蜀
蜂
蜃
蜆
蜇
蜈
蜉
蜊
蜍
蜒
蜓
蜕
蜗
蜘
蜚
蜜
蜡
蜢
蜥
蜱
蜴
蜷
蜻
蜿
蝇
蝈
蝉
蝋
蝌
蝎
蝕
蝗
蝙
蝠
蝥
蝦
蝮
蝴
蝶
蝸
蝼
蝿
螂
螃
螅
螈
融
螞
螟
螢
螨
螭
螯
螳
螺
蟀
蟄
蟆
蟋
蟎
蟑
蟒
蟠
蟬
蟮
蟲
蟳
蟹
蟻
蟾
蠅
蠍
蠔
蠕
蠟
蠡
蠢
蠣
蠱
蠶
蠹
蠻
血
衅
衆
行
衍
衒
術
衔
街
衙
衛
衝
衞
衡
衢
衣
补
表
衩
衫
衬
衮
衰
衲
衷
衹
衾
衿
袁
袂
袄
袅
袈
袋
袍
袒
袖
袜
袢
袤
袪
被
袭
袱
袴
袷
裁
裂
裄
装
裆
裏
裔
裕
裘
裙
補
裝
裟
裡
裤
裨
裱
裳
裴
裵
裸
裹
製
裾
褂
褄
複
褉
褋
褌
褍
褐
褒
褓
褔
褚
褛
褥
褪
褰
褲
褴
褶
褻
襁
襄
襌
襖
襞
襟
襦
襪
襯
襲
襷
西
要
覃
覆
覇
見
規
覓
視
覗
覚
覧
親
観
覷
覺
覽
觀
见
观
规
觅
视
览
觉
觊
觎
觐
觑
角
觞
解
觥
触
觯
觸
言
訂
訃
計
訊
討
訓
訕
訖
託
記
訛
訝
訟
訣
訥
訪
設
許
訳
訴
訶
診
註
証
訾
詆
詈
詐
詔
評
詛
詞
詠
詢
詣
試
詩
詫
詭
詮
詰
話
該
詳
詹
誂
誅
誇
誉
誊
誌
認
誓
誕
誘
語
誠
誡
誣
誤
誥
誦
誨
說
説
読
誰
課
誹
誼
調
諄
談
請
諌
諍
諏
諒
論
諗
諜
諡
諦
諧
諫
諭
諮
諱
諳
諷
諸
諺
諾
謀
謁
謂
謄
謇
謊
謎
謐
謗
謙
講
謝
謠
謡
謨
謬
謳
謹
謾
證
譏
識
譙
譚
譜
警
譬
譯
議
譲
譴
護
譽
讀
讃
變
讐
讓
讚
计
订
讣
认
讥
讧
讨
让
讪
讫
训
议
讯
记
讲
讳
讴
讶
讷
许
讹
论
讼
讽
设
访
诀
证
诃
评
诅
识
诈
诉
诊
诋
词
诏
译
诒
试
诗
诘
诙
诚
诛
话
诞
诟
诠
诡
询
诣
诤
该
详
诧
诨
诩
诫
诬
语
误
诰
诱
诲
说
诵
诶
请
诸
诺
读
诽
课
诿
谀
谁
调
谄
谅
谆
谈
谊
谋
谌
谍
谎
谏
谐
谑
谒
谓
谔
谕
谗
谘
谙
谚
谛
谜
谟
谡
谢
谣
谤
谥
谦
谧
谨
谩
谪
谬
谭
谯
谰
谱
谲
谴
谶
谷
谿
豁
豆
豇
豈
豉
豊
豌
豎
豐
豔
豕
豚
象
豢
豪
豫
豬
豸
豹
豺
貂
貅
貉
貌
貓
貔
貝
貞
負
財
貢
貧
貨
販
貪
貫
責
貯
貰
貳
貴
貶
買
貸
費
貼
貽
貿
賀
賁
賂
賃
賄
資
賈
賊
賑
賓
賛
賜
賞
賠
賢
賣
賤
賦
質
賬
賭
賴
賺
購
賽
贄
贅
贈
贊
贋
贍
贏
贓
贔
贖
贛
贝
贞
负
贡
财
责
贤
败
账
货
质
贩
贪
贫
贬
购
贮
贯
贰
贱
贲
贴
贵
贷
贸
费
贺
贻
贼
贾
贿
赁
赂
赃
资
赅
赈
赉
赊
赋
赌
赎
赏
赐
赓
赔
赖
赘
赚
赛
赝
赞
赟
赠
赡
赢
赣
赤
赦
赫
赭
走
赳
赴
赵
赶
起
趁
超
越
趋
趕
趙
趟
趣
趨
足
趴
趵
趸
趺
趾
跃
跄
跆
跋
跌
跎
跏
跑
跖
跚
跛
距
跟
跡
跤
跨
跪
跬
路
跳
践
跷
跺
跻
踉
踊
踌
踏
踐
踝
踞
踢
踩
踪
踮
踰
踱
踴
踵
踹
踽
蹂
蹄
蹇
蹈
蹉
蹊
蹋
蹌
蹑
蹒
蹙
蹟
蹤
蹦
蹩
蹬
蹭
蹲
蹴
蹶
蹼
蹿
躁
躅
躇
躊
躋
躍
躏
躓
躙
躪
身
躬
躯
躰
躲
躺
躾
軀
車
軋
軌
軍
軒
軟
転
軸
軼
軽
軾
較
載
輌
輒
輔
輕
輛
輝
輟
輥
輩
輪
輯
輳
輸
輻
輾
輿
轄
轅
轆
轉
轍
轎
轟
轢
车
轧
轨
轩
轫
转
轭
轮
软
轰
轲
轴
轶
轻
轼
载
轿
较
辄
辅
辆
辇
辈
辉
辊
辋
辍
辐
辑
输
辕
辖
辗
辘
辙
辛
辜
辞
辟
辣
辦
辨
辩
辫
辭
辮
辯
辰
辱
農
辷
边
辺
辻
込
辽
达
辿
迁
迂
迄
迅
过
迈
迎
运
近
返
还
这
进
远
违
连
迟
迢
迤
迥
迦
迩
迪
迫
迭
述
迴
迷
迸
迹
迺
追
退
送
适
逃
逅
逆
选
逊
逋
逍
透
逐
逑
递
逓
途
逕
逗
這
通
逛
逝
逞
速
造
逡
逢
連
逮
逯
週
進
逵
逶
逸
逹
逺
逻
逼
逾
遁
遂
遅
遇
遊
運
遍
過
遏
遐
遑
遒
道
達
違
遗
遙
遛
遜
遞
遠
遡
遢
遣
遥
遨
適
遭
遮
遲
遴
遵
遶
遷
選
遺
遼
遽
避
邀
邁
邂
邃
還
邇
邈
邉
邊
邋
邏
邑
邓
邕
邗
邙
邛
邝
邡
邢
那
邦
邨
邪
邬
邮
邯
邰
邱
邳
邵
邸
邹
邺
邻
郁
郅
郊
郎
郏
郑
郓
郗
郜
郝
郞
郡
郢
郦
郧
部
郫
郭
郯
郴
郵
郷
郸
都
郾
鄂
鄄
鄉
鄒
鄕
鄙
鄞
鄠
鄢
鄧
鄭
鄯
鄰
鄱
鄲
鄴
鄺
酆
酉
酊
酋
酌
配
酎
酐
酒
酔
酗
酚
酝
酞
酢
酣
酥
酩
酪
酬
酮
酯
酰
酱
酵
酶
酷
酸
酿
醂
醃
醇
醉
醋
醌
醍
醐
醒
醗
醚
醛
醜
醞
醣
醤
醪
醫
醬
醮
醯
醴
醸
醺
釀
釁
釆
采
釈
釉
释
釋
里
重
野
量
釐
金
釗
釘
釜
針
釣
釦
釧
釵
鈀
鈉
鈍
鈎
鈑
鈔
鈕
鈞
鈣
鈥
鈦
鈴
鈷
鈺
鈿
鉀
鉄
鉅
鉆
鉈
鉉
鉋
鉑
鉗
鉚
鉛
鉢
鉤
鉬
鉱
鉴
鉻
鉾
銀
銃
銅
銆
銇
銈
銉
銑
銓
銖
銘
銚
銜
銬
銭
銮
銳
銷
銹
鋁
鋅
鋏
鋒
鋤
鋪
鋭
鋰
鋲
鋳
鋸
鋼
錄
錆
錐
錘
錚
錠
錡
錢
錤
錦
錨
錫
錬
錮
錯
録
錳
錶
錾
鍊
鍋
鍍
鍏
鍐
鍑
鍒
鍓
鍔
鍖
鍗
鍘
鍙
鍚
鍛
鍜
鍝
鍣
鍥
鍦
鍩
鍬
鍮
鍰
鍵
鍺
鍼
鍾
鎂
鎊
鎌
鎏
鎔
鎖
鎚
鎢
鎧
鎬
鎭
鎮
鎯
鎰
鎳
鎴
鎵
鎶
鎷
鎸
鎺
鏀
鏁
鏂
鏃
鏄
鏈
鏉
鏊
鏋
鏌
鏍
鏑
鏖
鏗
鏘
鏞
鏟
鏡
鏢
鏤
鏽
鐏
鐐
鐗
鐘
鐙
鐜
鐞
鐡
鐢
鐨
鐩
鐪
鐫
鐮
鐲
鐳
鐵
鐸
鑄
鑊
鑑
鑒
鑣
鑫
鑰
鑲
鑳
鑷
鑼
鑽
鑾
鑿
针
钉
钊
钎
钏
钒
钓
钕
钗
钙
钚
钛
钜
钝
钞
钟
钠
钡
钢
钣
钤
钥
钦
钧
钨
钩
钮
钯
钰
钱
钳
钴
钵
钺
钻
钼
钽
钾
钿
铀
铁
铂
铃
铄
铅
铆
铉
铋
铌
铍
铎
铐
铑
铖
铛
铜
铝
铟
铠
铡
铢
铣
铤
铧
铨
铩
铬
铭
铮
铰
铱
铲
铳
铵
银
铸
铺
链
铿
销
锁
锂
锄
锅
锆
锈
锉
锋
锌
锏
锐
锑
锗
错
锚
锛
锟
锡
锢
锣
锤
锥
锦
锭
键
锯
锰
锲
锴
锵
锶
锷
锹
锺
锻
镀
镁
镂
镇
镉
镊
镌
镍
镐
镑
镓
镕
镖
镗
镛
镜
镝
镣
镦
镧
镫
镭
镯
镰
镳
镶
長
长
門
閃
閉
開
閏
閑
閒
間
閔
閘
関
閣
閤
閥
閨
閩
閫
閬
閭
閮
閱
閲
閻
閾
闂
闃
闄
闆
闇
闈
闊
闌
闍
闔
闕
闖
闘
關
闡
闢
门
闩
闪
闫
闭
问
闯
闰
闱
闲
闳
间
闵
闷
闸
闹
闺
闻
闽
闾
阀
阁
阂
阄
阅
阆
阈
阉
阎
阐
阑
阓
阔
阕
阖
阙
阚
阛
阜
队
阡
阪
阮
阱
防
阳
阴
阵
阶
阻
阿
陀
陂
附
际
陆
陇
陈
陉
陋
陌
降
限
陕
陛
陜
陝
陞
陟
陡
院
陣
除
陥
陨
险
陪
陰
陲
陳
陵
陶
陷
陸
険
陽
隂
隅
隆
隈
隊
隋
隍
階
随
隐
隔
隕
隗
隘
隙
際
障
隠
隣
隧
隨
險
隰
隱
隴
隶
隷
隸
隹
隻
隼
隽
难
雀
雁
雄
雅
集
雇
雉
雋
雌
雍
雎
雏
雑
雒
雕
雖
雙
雛
雜
雞
離
難
雨
雪
雫
雯
雰
雲
雳
零
雷
雹
電
雾
需
霁
霄
霆
震
霈
霉
霊
霍
霎
霏
霓
霖
霜
霞
霧
霭
霰
露
霸
霹
霽
霾
靂
靄
靈
靑
青
靓
靖
静
靚
靛
靜
非
靠
靡
面
靥
革
靭
靱
靳
靴
靶
靼
鞄
鞅
鞆
鞋
鞍
鞏
鞑
鞘
鞠
鞣
鞦
鞭
韆
韋
韌
韓
韜
韦
韧
韩
韫
韬
韭
韮
音
韵
韶
韻
響
頁
頂
頃
項
順
須
頌
預
頑
頒
頓
頗
領
頚
頡
頤
頫
頬
頭
頰
頴
頷
頸
頹
頻
頼
顆
題
額
顎
顏
顔
顕
願
顛
類
顧
顫
顯
顰
顱
页
顶
顷
项
顺
须
顼
顽
顾
顿
颀
颁
颂
预
颅
领
颇
颈
颉
颊
颌
颍
颐
频
颓
颔
颖
颗
题
颚
颛
颜
额
颞
颠
颢
颤
颦
颧
風
颯
颱
颶
飄
飆
风
飒
飓
飕
飘
飙
飚
飛
飞
食
飢
飨
飩
飪
飮
飯
飲
飴
飼
飽
飾
餃
餅
餉
養
餌
餍
餐
餓
餘
餚
餛
餞
餡
館
餮
餵
餾
饅
饉
饋
饌
饑
饒
饕
饗
饞
饥
饨
饪
饬
饭
饮
饯
饰
饱
饲
饴
饵
饶
饷
饺
饼
饽
饿
馀
馁
馃
馄
馅
馆
馈
馊
馋
馍
馏
馐
馒
馔
馕
首
馗
香
馥
馨
馬
馭
馮
馳
馴
駁
駄
駅
駆
駈
駐
駒
駕
駛
駝
駡
駭
駱
駿
騁
騎
騏
騒
験
騙
騨
騰
騷
驀
驅
驊
驍
驕
驗
驚
驛
驟
驢
驤
驥
驪
马
驭
驮
驯
驰
驱
驳
驴
驶
驷
驸
驹
驻
驼
驾
驿
骁
骂
骄
骅
骆
骇
骈
骊
骋
验
骏
骐
骑
骗
骚
骛
骜
骞
骠
骡
骤
骥
骧
骨
骯
骰
骶
骷
骸
骼
髂
髄
髅
髋
髌
髏
髑
髒
髓
體
髖
高
髙
髦
髪
髭
髮
髯
髻
鬃
鬆
鬍
鬓
鬘
鬚
鬟
鬢
鬣
鬥
鬧
鬨
鬪
鬱
鬼
魁
魂
魃
魄
魅
魇
魉
魍
魎
魏
魑
魔
魘
魚
魯
魷
鮎
鮑
鮒
鮨
鮪
鮫
鮭
鮮
鯉
鯊
鯖
鯛
鯨
鯰
鯱
鯵
鰆
鰐
鰤
鰭
鰯
鰲
鰹
鰻
鱈
鱒
鱗
鱧
鱷
鱸
鱼
鱿
鲁
鲅
鲇
鲈
鲍
鲑
鲛
鲜
鲟
鲢
鲤
鲨
鲫
鲲
鲳
鲶
鲷
鲸
鳃
鳄
鳅
鳌
鳍
鳎
鳏
鳕
鳖
鳗
鳜
鳝
鳞
鳟
鳥
鳩
鳳
鳴
鳶
鴉
鴎
鴛
鴦
鴨
鴻
鴿
鵑
鵜
鵝
鵠
鵡
鵬
鵰
鵲
鵺
鶉
鶏
鶯
鶴
鷄
鷗
鷲
鷹
鷺
鸚
鸞
鸟
鸠
鸡
鸢
鸣
鸥
鸦
鸨
鸩
鸪
鸭
鸮
鸯
鸳
鸵
鸽
鸾
鸿
鹂
鹃
鹄
鹅
鹈
鹉
鹊
鹌
鹏
鹑
鹕
鹗
鹘
鹜
鹞
鹤
鹦
鹧
鹩
鹫
鹬
鹭
鹮
鹰
鹳
鹵
鹸
鹹
鹼
鹽
鹿
麂
麋
麒
麓
麗
麝
麟
麥
麦
麩
麴
麵
麸
麹
麺
麻
麼
麽
麾
麿
黃
黄
黉
黍
黎
黏
黑
黒
黔
默
黙
黛
黜
黝
點
黟
黠
黨
黯
黴
黾
鼋
鼎
鼐
鼓
鼠
鼬
鼹
鼻
鼾
齁
齊
齋
齎
齐
齒
齟
齡
齢
齣
齦
齧
齬
齲
齿
龄
龅
龇
龈
龊
龋
龌
龍
龐
龔
龕
龙
龚
龛
龜
龟
꒳
ꜳ
꞉
ꞌ
ꦸ
꧋
가
각
간
갇
갈
감
갑
값
갓
갔
강
갖
같
갚
갛
개
객
갠
갤
갬
갭
갯
갱
걀
걍
걔
거
걱
건
걷
걸
검
겁
것
겅
겉
겊
게
겐
겔
겟
겠
겨
격
겪
견
결
겸
겹
겼
경
곁
계
고
곡
곤
곧
골
곰
곱
곳
공
곶
과
곽
관
괄
괌
광
괜
괴
굉
교
굣
구
국
군
굳
굴
굵
굶
굽
굿
궁
궂
궈
권
궐
궜
궤
귀
귄
귈
귓
규
균
귤
그
극
근
글
긁
금
급
긋
긍
기
긴
길
김
깁
깃
깅
깊
까
깍
깎
깐
깔
깜
깝
깟
깡
깥
깨
깬
깰
깻
깼
꺼
꺽
꺾
껌
껍
껏
껐
껑
께
껴
꼈
꼬
꼭
꼰
꼴
꼼
꼽
꽁
꽂
꽃
꽈
꽉
꽝
꽤
꾀
꾸
꾹
꾼
꿀
꿇
꿈
꿉
꿋
꿍
꿎
꿔
꿨
꿩
꿰
뀌
뀐
뀔
뀝
끄
끈
끉
끊
끌
끓
끔
끕
끖
끗
끝
끼
끽
낀
낄
낌
낍
나
낙
낚
난
날
낡
남
납
낫
났
낭
낮
낯
낱
낳
내
낵
낸
낼
냄
냅
냈
냉
냐
냠
냥
너
넉
넋
넌
널
넓
넘
넛
넣
네
넥
넨
넬
넵
넷
넸
녀
녁
년
념
녔
녕
녘
노
녹
논
놀
놈
놉
놋
농
높
놓
놔
놨
뇌
뇨
누
눅
눈
눌
눔
눕
눠
눴
뉘
뉜
뉩
뉴
늄
느
늑
는
늘
늙
늠
능
늦
늪
늬
니
닉
닌
닐
님
닙
닛
닝
다
닥
닦
단
닫
달
닭
닮
닳
담
답
닷
당
닻
닿
대
댁
댄
댈
댐
댑
댓
댔
댕
더
덕
던
덜
덟
덤
덥
덧
덩
덫
덮
데
덱
덴
델
뎀
뎃
뎅
뎌
도
독
돈
돋
돌
돔
돕
돗
동
돛
돼
됐
되
된
될
됨
됩
두
둑
둔
둘
둠
둡
둥
둬
뒀
뒤
뒷
듀
듈
듐
드
득
든
듣
들
듬
듭
듯
등
디
딕
딘
딛
딜
딤
딥
딧
딩
딪
따
딱
딴
딸
땀
땄
땅
땋
때
땐
땜
땠
땡
떄
떠
떡
떤
떨
떫
떳
떴
떻
떼
뗀
뗄
뗏
뗐
또
똑
똘
똥
뚜
뚝
뚤
뚫
뚱
뛰
뛴
뛸
뜁
뜨
뜩
뜬
뜯
뜰
뜸
뜹
뜻
띄
띈
띔
띕
띠
띤
라
락
란
랄
람
랍
랏
랐
랑
랗
래
랙
랜
랠
램
랩
랫
랬
랭
랴
략
량
러
럭
런
럴
럼
럽
럿
렀
렁
렇
레
렉
렌
렐
렘
렙
렛
렝
려
력
련
렬
렴
렵
렷
렸
령
례
롄
로
록
론
롤
롬
롭
롯
롱
뢰
료
룡
루
룩
룬
룰
룸
룹
룻
뤄
뤘
뤼
류
륙
륜
률
륨
륭
르
른
를
름
릅
릇
릉
릎
리
릭
린
릴
림
립
릿
링
마
막
만
많
맏
말
맑
맘
맙
맛
망
맞
맡
맣
매
맥
맨
맬
맴
맵
맷
맹
맺
머
먹
먼
멀
멈
멋
멍
메
멕
멘
멜
멤
멧
멩
며
면
멸
몄
명
몇
모
목
몫
몬
몰
몸
몹
못
몽
묘
무
묵
묶
문
묻
물
묽
뭄
뭅
뭇
뭉
뭐
뭔
뭘
뭡
뮌
뮤
뮬
뮴
므
믈
미
믹
민
믿
밀
밈
밉
밋
밌
밍
및
밑
바
박
밖
반
받
발
밝
밟
밤
밥
밧
방
밭
배
백
밴
밸
뱀
뱃
뱅
뱉
버
벅
번
벌
범
법
벗
벙
벚
베
벡
벤
벧
벨
벳
벵
벼
벽
변
별
볍
병
볕
보
복
볶
본
볼
봄
봅
봇
봉
봐
봤
봬
뵐
뵙
부
북
분
불
붉
붐
붓
붕
붙
뷔
뷰
뷴
뷸
브
븐
블
비
빅
빈
빌
빔
빕
빗
빙
빚
빛
빠
빡
빤
빨
빴
빵
빼
빽
뺀
뺄
뺍
뺏
뺐
뺑
뺨
뻐
뻑
뻔
뻗
뻘
뻣
뻤
뻥
뼈
뼘
뼛
뽀
뽐
뽑
뽕
뾰
뿅
뿌
뿍
뿐
뿔
뿜
쁘
쁜
쁠
쁨
쁩
삐
사
삭
산
살
삶
삼
삽
삿
샀
상
샅
새
색
샌
샐
샘
샛
생
샤
샬
샴
샵
샷
샹
섀
서
석
섞
선
섣
설
섬
섭
섯
섰
성
세
섹
센
셀
셈
셉
셋
셔
션
셜
셧
셨
셰
셸
소
속
손
솔
솜
솟
송
솥
쇄
쇠
쇼
숀
숄
숍
숏
수
숙
순
숟
술
숨
숫
숭
숯
숱
숲
숴
쉐
쉘
쉬
쉰
쉴
쉼
쉽
쉿
슈
슐
슘
슛
슝
스
슥
슨
슬
슭
슴
습
슷
승
슽
시
식
신
싣
실
싫
심
십
싯
싱
싶
싸
싹
싼
쌀
쌈
쌉
쌌
쌍
쌓
쌔
쌤
쌩
써
썩
썬
썰
썸
썹
썼
썽
쎄
쎈
쏘
쏙
쏜
쏟
쏠
쏩
쏭
쏴
쐈
쐐
쑤
쑥
쓰
쓱
쓴
쓸
씀
씁
씌
씨
씩
씬
씰
씹
씻
씽
아
악
안
앉
않
알
앎
앓
암
압
앗
았
앙
앞
애
액
앤
앨
앰
앱
앳
앵
야
약
얀
얄
얇
얌
얏
양
얕
얗
얘
어
억
언
얹
얻
얼
얽
엄
업
없
엇
었
엉
엊
엌
엎
에
엑
엔
엘
엠
엡
엣
엥
여
역
엮
연
열
엷
염
엽
엿
였
영
옅
옆
옇
예
옌
옐
옛
오
옥
온
올
옮
옳
옴
옵
옷
옹
옻
와
왁
완
왈
왑
왓
왔
왕
왜
왠
외
왼
요
욕
욘
욥
용
우
욱
운
울
움
웁
웃
웅
워
웍
원
월
웜
웠
웡
웨
웬
웰
웸
웹
위
윅
윈
윌
윔
윕
윗
윙
유
육
윤
율
융
윷
으
윽
은
을
음
읍
응
의
이
익
인
일
읽
잃
임
입
잇
있
잉
잊
잎
자
작
잔
잖
잘
잠
잡
잣
잤
장
잦
재
잭
잰
잼
잽
잿
쟁
저
적
전
절
젊
점
접
젓
정
젖
제
젝
젠
젤
젭
젯
져
젼
졌
조
족
존
졸
좀
좁
종
좇
좋
좌
죄
죠
주
죽
준
줄
줌
줍
줏
중
줘
줬
쥐
쥔
쥘
쥬
쥴
즈
즉
즌
즐
즘
즙
증
지
직
진
질
짊
짐
집
짓
징
짖
짙
짚
짜
짝
짠
짤
짧
짬
짭
짱
째
쨋
쨌
쨍
쩌
쩍
쩐
쩔
쩜
쩝
쩡
쪄
쪼
쪽
쫀
쫄
쫌
쫓
쫙
쬐
쭈
쭉
쮿
쯔
쯤
찌
찍
찎
찐
찔
찜
찝
찡
찢
차
착
찬
찮
찰
참
찹
찻
찼
창
찾
채
책
챈
챌
챔
챕
챗
챙
챤
처
척
천
철
첨
첩
첫
청
체
첸
첼
쳇
쳐
쳤
초
촉
촌
촘
촛
총
촨
촬
최
쵸
추
축
춘
출
춤
춥
춧
충
춰
췄
췌
취
츄
츠
측
츨
츰
층
치
칙
친
칠
침
칩
칫
칭
카
칵
칸
칼
캄
캇
캉
캐
캔
캘
캠
캡
캣
캥
캬
커
컥
컨
컫
컬
컴
컵
컷
컸
케
켄
켈
켓
켜
켠
켤
켭
켰
코
콕
콘
콜
콤
콥
콧
콩
콰
쾅
쾌
쾰
쿄
쿠
쿡
쿤
쿨
쿰
쿵
쿼
퀀
퀄
퀘
퀴
퀵
퀸
퀼
큐
큘
크
큰
클
큼
큽
키
킥
킨
킬
킴
킵
킷
킹
타
탁
탄
탈
탉
탐
탑
탓
탔
탕
태
택
탠
탤
탬
탭
탯
탰
탱
터
턱
턴
털
텀
텁
텃
텅
테
텍
텐
텔
템
텝
텨
톈
토
톡
톤
톨
톰
톱
통
퇴
투
툭
툰
툴
툼
퉁
퉈
퉤
튀
튄
튈
튕
튜
튠
튤
튬
트
특
튼
튿
틀
틈
틋
티
틱
틴
틸
팀
팁
팅
파
팍
팎
판
팔
팜
팝
팟
팠
팡
팥
패
팩
팬
팰
팸
팹
팻
팽
퍼
퍽
펀
펄
펌
펍
펑
페
펙
펜
펠
펩
펫
펭
펴
편
펼
폄
폈
평
폐
포
폭
폰
폴
폼
폿
퐁
표
푸
푹
푼
풀
품
풉
풋
풍
퓨
퓰
퓸
프
픈
플
픔
픕
피
픽
핀
필
핌
핍
핏
핑
하
학
한
할
핥
함
합
핫
항
해
핵
핸
핼
햄
햅
햇
했
행
햐
향
허
헉
헌
헐
험
헛
헝
헤
헥
헨
헬
헴
헷
헹
혀
혁
현
혈
혐
협
혔
형
혜
호
혹
혼
홀
홈
홉
홋
홍
화
확
환
활
홧
황
횃
회
획
횟
횡
효
후
훅
훈
훌
훑
훔
훗
훤
훨
훼
휘
휙
휠
휩
휴
휼
흉
흐
흑
흔
흘
흙
흠
흡
흥
흩
희
흰
히
힌
힐
힘
힙
힛
힝


































































































































































































































































































































































































不
年
理
行
﨑
ﬀ
ﬁ
ﬂ
ﬃ
ﬔ
ﬕ
יִ
ײַ
שׂ
אַ
אָ
וּ
כּ
פּ
פֿ
ﭖ
ﭗ
ﭘ
ﭼ
ﭽ
ﮍ
ﮏ
ﮐ
ﮑ
ﮒ
ﮔ
ﮕ
ﮞ
ﮟ
ﮦ
ﮧ
ﮨ
ﮩ
ﮫ
ﮬ
ﮭ
ﮮ
ﮯ
ﯘ
ﯞ
ﯩ
ﯼ
ﯽ
ﯾ
ﯿ
ﰎ
ﰒ
ﰲ
ﱂ
ﱃ
ﱄ
ﱐ
ﱘ
ﱪ
ﱴ
ﱵ
ﲆ
ﲑ
ﲔ
ﲟ
ﲢ
ﲤ
ﲨ
ﳉ
ﳊ
ﳋ
ﳌ
ﳍ
ﳎ
ﳑ
ﳓ
ﳚ
ﳝ
﴾
﴿
ﶈ
ﷲ
ﷺ
ﷻ
﷼
﷽
︎
️
︰
︱
︵
︶
︽
︾
︿
﹀
﹁
﹂
﹏
﹐
﹑
﹒
﹔
﹕
﹖
﹗
﹙
﹚
﹝
﹞
﹡
﹣
ﹰ
ﺁ
ﺃ
ﺄ
ﺅ
ﺆ
ﺇ
ﺈ
ﺋ
ﺌ
ﺍ
ﺎ
ﺏ
ﺐ
ﺑ
ﺒ
ﺓ
ﺔ
ﺕ
ﺖ
ﺗ
ﺘ
ﺚ
ﺛ
ﺜ
ﺝ
ﺞ
ﺟ
ﺠ
ﺡ
ﺢ
ﺣ
ﺤ
ﺦ
ﺧ
ﺨ
ﺩ
ﺪ
ﺫ
ﺬ
ﺭ
ﺮ
ﺯ
ﺰ
ﺱ
ﺲ
ﺳ
ﺴ
ﺶ
ﺷ
ﺸ
ﺹ
ﺺ
ﺻ
ﺼ
ﺾ
ﺿ
ﻀ
ﻂ
ﻃ
ﻄ
ﻆ
ﻇ
ﻈ
ﻉ
ﻊ
ﻋ
ﻌ
ﻎ
ﻏ
ﻐ
ﻑ
ﻒ
ﻓ
ﻔ
ﻕ
ﻖ
ﻗ
ﻘ
ﻙ
ﻚ
ﻛ
ﻜ
ﻝ
ﻞ
ﻟ
ﻠ
ﻡ
ﻢ
ﻣ
ﻤ
ﻥ
ﻦ
ﻧ
ﻨ
ﻩ
ﻪ
ﻫ
ﻬ
ﻭ
ﻮ
ﻯ
ﻰ
ﻱ
ﻲ
ﻳ
ﻴ
ﻵ
ﻷ
ﻸ
ﻹ
ﻻ
ﻼ
！
＂
＃
＄
％
＆
＇
（
）
＊
＋
，
－
．
／
０
１
２
３
４
５
６
７
８
９
：
；
＜
＝
＞
？
＠
Ａ
Ｂ
Ｃ
Ｄ
Ｅ
Ｆ
Ｇ
Ｈ
Ｉ
Ｊ
Ｋ
Ｌ
Ｍ
Ｎ
Ｏ
Ｐ
Ｑ
Ｒ
Ｓ
Ｔ
Ｕ
Ｖ
Ｗ
Ｘ
Ｙ
Ｚ
［
＼
］
＾
＿
｀
ａ
ｂ
ｃ
ｄ
ｅ
ｆ
ｇ
ｈ
ｉ
ｊ
ｋ
ｌ
ｍ
ｎ
ｏ
ｐ
ｑ
ｒ
ｓ
ｔ
ｕ
ｖ
ｗ
ｘ
ｙ
ｚ
｛
｜
｝
～
｡
｢
｣
､
･
ｦ
ｧ
ｨ
ｪ
ｫ
ｬ
ｭ
ｮ
ｯ
ｰ
ｱ
ｲ
ｳ
ｴ
ｵ
ｶ
ｷ
ｸ
ｹ
ｺ
ｼ
ｽ
ｾ
ｿ
ﾀ
ﾁ
ﾂ
ﾃ
ﾄ
ﾅ
ﾆ
ﾉ
ﾊ
ﾋ
ﾌ
ﾍ
ﾎ
ﾏ
ﾐ
ﾑ
ﾒ
ﾔ
ﾗ
ﾘ
ﾙ
ﾚ
ﾛ
ﾜ
ﾝ
ﾞ
ﾟ
￠
￡
￢
￣
￥
￭
￼
�
𝑎
𝑛
𝑡
𝑥
𝑦
🅴
🅾
🆓
🆔
🆕
🆗
🆚
🇦
🇧
🇨
🇩
🇪
🇫
🇬
🇭
🇮
🇯
🇰
🇱
🇲
🇳
🇴
🇵
🇷
🇸
🇹
🇺
🇻
🇼
🇽
🇾
🇿
🌀
🌃
🌄
🌅
🌈
🌊
🌌
🌍
🌎
🌏
🌐
🌕
🌙
🌚
🌛
🌝
🌞
🌟
🌠
🌤
🌧
🌪
🌬
🌱
🌲
🌳
🌴
🌵
🌶
🌷
🌸
🌹
🌺
🌻
🌼
🌾
🌿
🍀
🍁
🍂
🍃
🍄
🍅
🍆
🍇
🍉
🍊
🍋
🍌
🍍
🍎
🍏
🍐
🍑
🍒
🍓
🍔
🍕
🍗
🍚
🍜
🍝
🍞
🍟
🍥
🍦
🍧
🍩
🍪
🍫
🍬
🍭
🍯
🍰
🍲
🍳
🍴
🍵
🍷
🍸
🍹
🍺
🍻
🍼
🍽
🍾
🍿
🎀
🎁
🎂
🎃
🎄
🎅
🎆
🎇
🎈
🎉
🎊
🎋
🎎
🎒
🎓
🎗
🎙
🎞
🎡
🎤
🎥
🎧
🎨
🎩
🎪
🎫
🎬
🎭
🎮
🎯
🎲
🎵
🎶
🎸
🎹
🎻
🎼
🎾
🏀
🏁
🏃
🏄
🏅
🏆
🏇
🏈
🏊
🏋
🏍
🏒
🏔
🏕
🏖
🏘
🏙
🏚
🏝
🏟
🏠
🏡
🏢
🏥
🏨
🏩
🏫
🏬
🏰
🏳
🏴
🏵
🏷
🏹
🏻
🏼
🏽
🏾
🏿
🐇
🐈
🐉
🐌
🐍
🐎
🐐
🐑
🐒
🐓
🐔
🐕
🐘
🐙
🐚
🐛
🐝
🐞
🐟
🐠
🐢
🐣
🐥
🐦
🐧
🐬
🐭
🐮
🐯
🐰
🐱
🐲
🐳
🐴
🐵
🐶
🐷
🐸
🐺
🐻
🐼
🐾
👀
👁
👄
👅
👆
👇
👈
👉
👊
👋
👌
👍
👎
👏
👐
👑
👒
👓
👔
👕
👖
👗
👙
👚
👜
👟
👠
👡
👣
👤
👥
👦
👧
👨
👩
👪
👫
👬
👭
👮
👯
👰
👱
👳
👵
👶
👷
👸
👹
👻
👼
👽
👾
👿
💀
💁
💃
💄
💅
💆
💇
💈
💉
💊
💋
💌
💍
💎
💏
💐
💑
💒
💓
💔
💕
💖
💗
💘
💙
💚
💛
💜
💝
💞
💟
💠
💡
💢
💣
💤
💥
💦
💧
💨
💩
💪
💫
💬
💭
💮
💯
💰
💲
💳
💵
💶
💸
💻
💼
💾
💿
📄
📅
📆
📈
📊
📋
📌
📍
📎
📏
📒
📓
📕
📖
📗
📘
📚
📜
📝
📞
📡
📢
📣
📤
📥
📦
📧
📩
📬
📮
📰
📱
📲
📷
📸
📹
📺
📻
📽
🔁
🔄
🔅
🔆
🔊
🔋
🔍
🔎
🔐
🔑
🔒
🔔
🔖
🔗
🔘
🔛
🔜
🔝
🔞
🔥
🔧
🔨
🔪
🔫
🔬
🔭
🔮
🔯
🔰
🔱
🔴
🔵
🔶
🔷
🔸
🔹
🔺
🔻
🔽
🕉
🕊
🕋
🕌
🕑
🕔
🕗
🕛
🕯
🕴
🕶
🕸
🕺
🖋
🖌
🖤
🖥
🗓
🗝
🗣
🗨
🗺
🗽
😀
😁
😂
😃
😄
😅
😆
😇
😈
😉
😊
😋
😌
😍
😎
😏
😐
😑
😒
😓
😔
😕
😖
😗
😘
😙
😚
😛
😜
😝
😞
😟
😠
😡
😢
😣
😤
😥
😦
😧
😨
😩
😪
😫
😬
😭
😮
😯
😰
😱
😲
😳
😴
😵
😶
😷
😸
😹
😺
😻
😽
🙀
🙁
🙂
🙃
🙄
🙅
🙆
🙇
🙈
🙉
🙊
🙋
🙌
🙎
🙏
🚀
🚌
🚑
🚒
🚕
🚖
🚗
🚘
🚙
🚚
🚛
🚜
🚧
🚨
🚩
🚫
🚲
🚴
🚶
🚼
🛍
🛑
🛒
🛠
🛫
🛵
🤐
🤑
🤓
🤔
🤕
🤖
🤗
🤘
🤙
🤝
🤞
🤠
🤡
🤣
🤤
🤦
🤨
🤩
🤪
🤫
🤭
🤯
🤰
🤲
🤳
🤷
🤸
🥀
🥁
🥂
🥇
🥑
🥕
🥗
🥛
🥰
🥳
🥺
🦀
🦁
🦄
🦅
🦊
🦋
🧀
🧐
🧘
🧚
🧠
🧡
🧳
𠕇
𤣥
򐂰
󰀄
􀂃
de
na
##s
la
en
in
sa
##a
на
the
to
se
##n
##e
da
##i
je
le
di
te
que
of
un
and
##t
an
is
og
ka
do
die
##m
ya
on
et
##r
##o
##u
for
at
të
er
да
10
ja
no
van
dan
li
ang
si
yang
za
за
para
ni
der
##en
el
не
du
ki
ng
ny
ar
ne
ta
på
##k
com
се
me
nga
ir
und
den
til
##l
som
##y
के
کے
##d
per
ma
as
il
wa
##na
het
med
nan
al
در
su
ve
ke
les
20
om
ku
છે
12
ko
به
mga
och
að
des
por
det
yn
The
15
και
een
##ni
##и
##an
30
it
##а
av
kan
you
ti
yo
##te
11
##j
##er
है
op
bir
##ta
una
agus
میں
në
में
##da
از
La
ay
##g
that
کی
في
és
##м
um
by
har
##ne
من
with
pa
ہے
##е
2019
od
af
az
att
so
##h
ou
be
eta
##ra
от
ba
##le
bi
по
es
##la
18
##ga
14
16
kwa
და
kaj
nie
की
##ka
во
var
ha
em
##in
De
00
ho
untuk
000
est
13
ak
los
va
sem
are
##de
dhe
το
go
bo
##н
να
##es
##ng
του
اور
au
Ang
17
##ti
##re
می
25
અને
100
mai
که
##li
dengan
для
your
was
we
mi
##у
met
din
tal
os
po
##ma
50
##ی
ini
19
ei
non
or
lan
pour
को
سے
är
dat
нь
par
ai
2018
24
را
##ch
##ы
της
və
और
##те
yon
до
של
од
zu
das
से
21
##z
##ing
##ς
##ja
sing
się
την
##та
în
vi
une
En
von
ing
این
با
In
##et
##т
mit
است
את
një
this
và
22
##mi
##on
##ri
për
nu
sur
کو
mu
##si
have
för
για
bu
##ي
www
एक
2017
με
che
from
आहे
awọn
tu
على
como
или
dia
का
##je
##ه
dari
40
##й
all
voor
ia
mo
ਹੈ
23
Na
##ko
##lar
pe
##no
##is
he
ਦੇ
für
های
ser
của
del
је
کا
Die
ji
##c
##х
та
ako
##us
2016
Sie
##do
από
dalam
eller
##se
oo
dans
Google
pou
air
este
پر
aan
man
##ya
ce
ag
اس
can
ist
km
že
có
που
что
ikke
што
ndi
##ة
ea
uma
als
will
##ar
##nya
со
نے
qui
##st
las
మరియు
##я
##b
El
##p
##ا
not
sin
hogy
ana
tidak
##em
##ים
ao
am
##і
men
dos
ga
2015
lo
हैं
##wa
re
ua
##sa
son
Il
bisa
ہیں
auf
ze
##на
##о
28
là
și
09
estas
ва
wat
im
pas
26
##को
Det
##v
amin
till
על
kuti
dem
që
online
##ki
27
##to
##S
ਨੂੰ
##me
##as
##A
እና
کہ
##ia
Le
over
No
##lo
vous
ба
##va
care
##ke
sy
##ে
##의
ein
my
2014
ili
mea
ਦੀ
ale
ile
itu
her
##um
mais
##ho
så
29
anu
akan
con
##ce
60
pentru
net
kanggo
tak
##ve
fra
या
из
##é
дар
cho
Se
pada
lub
են
pro
co
##에
पर
то
kun
ali
2013
more
στο
##os
jo
##ни
iyo
zijn
##om
jest
σε
եւ
માટે
او
ug
लिए
dit
##ed
##ba
ଏବଂ
New
##ን
Bu
आणि
2012
##mo
may
ah
##ს
##मा
##ca
31
plus
##í
alle
τα
##ом
કે
has
các
pri
Hotel
##it
isang
fan
##nt
##za
είναι
برای
##0
##di
##ă
video
რომ
са
ee
được
##2
kad
2011
##kan
##ات
up
των
Facebook
It
په
nā
sou
##ن
##ની
için
mar
To
कि
sé
##л
katika
iz
го
eine
##ה
han
nem
să
##ت
2010
##к
ஒரு
##ের
tau
oder
our
við
não
તે
adalah
##ми
one
web
ಮತ್ತು
##을
##то
##ת
що
як
koji
##ą
kev
ez
##да
ایک
ने
site
01
##ku
##at
##ha
sobre
Instagram
##от
Si
және
rau
##ek
trong
##ur
##ն
##f
##ৰ
tai
cov
##ка
sich
##া
##р
որ
די
но
but
##માં
không
ich
##га
மற்றும்
We
как
500
ati
##י
della
với
##E
##ी
35
ora
һәм
##tu
##ות
##ul
##ов
avec
##1
##ro
ки
ca
është
200
atau
seu
kita
при
time
bei
##ie
##ju
ها
cookies
kas
eu
##ся
http
ra
aku
nos
##x
nach
min
80
аз
ነው
about
Download
fi
לא
iki
##ը
một
data
ۋە
##ci
Anda
egy
##al
##ના
##не
ntawm
##이
हो
45
ਤੇ
nei
2009
##ler
##ı
cu
like
90
##go
##д
anda
seo
Sa
عن
dina
ett
nke
##র
##ak
08
ook
##I
##ze
cha
niet
með
fa
see
70
στην
new
##م
Un
ਅਤੇ
më
ona
##ning
2008
saya
their
şi
post
inte
##w
they
entre
ላይ
out
ac
ut
##ji
sau
##و
τον
vai
05
juga
más
##nu
any
##ны
uz
##ו
alla
mas
На
##ى
You
##O
oli
sam
байна
ada
što
##dan
##ë
This
##ને
jeg
##ли
##ले
##á
że
भी
vun
ayaa
pre
##man
##zi
ان
Vi
##ê
##jo
##ly
τη
آن
може
amb
ውስጥ
ഒരു
یہ
don
си
ekki
gen
fyrir
Je
##T
##는
werden
##ge
Les
##лар
##ment
kami
dapat
##г
ci
uye
aus
vil
tot
gan
32
##ye
03
##ren
ଏକ
saka
ਦਾ
##но
02
##ų
θα
thiab
yra
°C
II
nou
##ю
ye
یا
یک
mereka
τους
người
jag
##yo
نہیں
##3
það
07
کیا
els
06
ਨੇ
auch
עם
uchun
vir
##ر
##N
dei
04
##ية
Is
está
##M
##el
hindi
üçün
mis
##은
إلى
##ndo
estis
ann
##we
ad
جو
ik
2007
tout
jak
это
##का
orang
он
ito
ما
nas
नहीं
hat
жана
##ा
без
એક
##C
##R
##ir
##D
email
##ର
which
ही
Stock
করে
بھی
TV
أن
unha
sareng
##를
also
će
lebih
lati
ќе
##ა
##نى
না
##ට
tha
kuwa
ще
his
if
און
##ny
wie
##с
##в
skal
че
kui
sind
##ын
sig
##ها
palibot
بۇ
Li
ପାଇଁ
##ла
just
foi
että
##un
để
yr
##mu
lang
maar
bilan
##ina
بعد
As
юм
##5
kao
мен
bez
પર
τις
##L
fil
так
Der
33
aby
Du
300
##ov
אין
era
дека
все
##ки
##ó
pag
আৰু
ons
via
US
sont
votre
있습니다
oleh
##े
##gi
yog
خود
olan
parte
tas
##లో
##id
bạn
fun
##4
2000
36
những
br
##P
atu
Ma
ilə
uit
mail
##ի
##ти
under
شده
##ରେ
এবং
##가
Ko
Den
word
ਲਈ
បាន
तो
Az
এই
apa
ved
جي
bakal
bij
पनि
Di
זה
कर
##ان
đã
##ل
kom
qu
ere
Mae
ihe
##lik
sua
##am
οι
2006
blog
ਕਿ
công
وہ
##nin
ги
δεν
kako
34
Windows
##nda
או
tsy
##nde
who
არ
più
mau
door
cm
sama
pero
##ן
です
यह
ეს
come
been
इस
uu
bet
их
daha
شود
nuk
бар
had
også
dar
##co
لئے
##கள்
Ja
thể
##io
An
##د
##K
us
fir
get
bat
##sta
Het
Ne
##be
##ды
ප්
John
meg
##نىڭ
##ları
gu
ის
yi
су
kā
Hesabındaki
other
પણ
هم
when
tus
##ি
менен
ukuba
what
##ten
pikeun
किया
##B
San
ਇਸ
ina
kepada
##ই
free
því
dag
into
dass
soo
##ен
ਵਿੱਚ
સાથે
mm
Al
##6
##hi
הוא
##or
##ш
38
xwe
He
Da
साथ
kung
사진
##ów
तर
آپ
kana
37
యొక్క
##وں
bila
sono
ਤੋਂ
என்று
##ක්
##8
dla
же
##den
foto
ਨਾਲ
telah
naar
sit
48
make
تھا
##7
være
karo
بىر
film
ju
करने
For
లో
së
tsa
##né
இந்த
id
مع
Men
##mos
chun
download
arī
them
համար
tại
פון
bhfuil
##ní
nasod
mer
tse
were
wir
år
55
ಎಂದು
från
Video
ten
qhov
Dr
https
că
کرنے
##س
вы
deze
aj
ning
eng
39
##9
satu
##ä
nous
ole
olarak
75
کر
नाही
City
##ks
leis
kwenye
hàng
kot
khi
ṣe
2005
meer
oma
anak
nije
tam
تو
jako
ਹਨ
##U
eru
về
##го
sie
##pa
белән
како
##ত
ano
worden
hauv
də
ότι
forma
kuma
On
ama
ter
##jn
some
деп
information
##ದ
איז
##F
nad
aux
there
tan
##il
Android
ја
##र
چې
##ם
samo
##の
jou
wird
42
និង
##ों
über
biex
##न
##lor
##ين
ireo
سال
Et
##п
website
ته
его
lahko
fè
تا
esta
most
ID
150
Twitter
kama
If
Ka
था
dig
sen
mill
##లు
##ੀ
ek
này
menjadi
##ach
sed
mal
đến
Es
##ā
За
einen
##î
muaj
##க்
ndị
##G
##ය
would
lagi
hari
44
minn
##ப்
zum
ఒక
##à
iPhone
muri
tako
සහ
کې
##lu
بىلەن
vagy
##ů
how
kiel
làm
pi
като
##ма
sunt
bụ
400
või
għal
כל
##ok
få
##କୁ
##ə
koje
sebagai
từ
need
2004
##त
tem
থেকে
iš
##ns
oraz
kann
nog
##au
##ون
siya
Por
alebo
##ú
ای
niya
dị
dell
Co
##ను
Para
##ಗಳು
għall
Не
##ð
има
або
##ો
tahun
Do
Mi
##ik
už
له
dy
kay
than
only
##ь
કરી
бо
eo
maka
mat
people
roku
má
ın
##ның
##q
nó
use
cara
ένα
##ky
##ம்
ben
kommer
Allah
Los
##vi
nebo
Το
internet
##mente
Ni
kunye
pod
tempo
fuq
first
არის
Os
program
HD
nur
الله
przez
einer
lain
smo
##he
Das
про
па
계정
##ন
können
York
##과
wedi
हे
mana
43
ach
само
org
සඳහා
өчен
##ේ
yake
##ных
lui
sampeyan
41
する
trên
##du
인스타그램
seperti
sẽ
nel
vor
##ot
##ів
شد
أو
St
hun
lagu
mwen
gratis
its
##lla
dua
##ға
ແລະ
sú
##ው
##leri
##lər
##로
##ва
biti
hore
##tan
##ć
todos
dira
छन्
##ts
Dan
ass
fost
nav
##लाई
best
nhà
vào
##so
##H
##ат
banyak
war
hann
ary
##nte
Dit
##ę
ri
નથી
46
би
##ste
##V
##ў
ми
##ز
Tá
bien
hier
##dir
যে
ap
mae
করা
zo
##ні
game
можно
mund
જે
ég
fel
usa
einem
năm
2003
##im
რომელიც
Apple
izan
tá
একটি
dụng
ste
गया
ਵਿਚ
##ban
জন্য
kuri
pode
##ou
todo
##ai
như
well
මේ
99
mei
boleh
μια
болно
bis
التي
jî
হয়
USA
lai
##ش
##ге
##ter
aka
ukuthi
##vo
ani
tudi
chi
Nam
part
máis
uns
être
##nie
Park
لا
від
بر
ни
ви
##ol
hem
upp
##ные
##ın
які
នៅ
байгаа
##에서
49
##ਾਂ
бир
etc
nam
ու
भएको
ʻo
##ana
65
chì
जो
here
##ru
efter
bude
צו
##ով
##oj
47
są
sistema
##ك
wis
cookie
ਵੀ
sve
paling
ساتھ
får
kada
nws
hotel
bilo
##한
media
Per
wong
нас
wakati
##des
All
haben
ib
Po
want
##ো
seus
ahụ
tsis
ଏହି
tre
sonra
service
kasarangang
dette
Jeg
heeft
##ку
Internet
oa
ਸੀ
cikin
Online
##ી
nhất
hafa
end
shumë
kandi
moun
Pro
year
##nga
jẹ
bil
мы
moet
##ini
##નો
کند
help
san
##ке
foar
vida
beste
tersebut
cada
ver
kang
ses
##თ
##bi
ge
только
##ry
شما
sana
qo
hoe
học
бол
आहेत
στη
wordt
nhiều
##ad
μας
denne
Me
##ում
work
déi
ин
delle
##sti
това
jew
52
から
full
dels
fl
years
Service
##ть
2020
bị
koja
##으로
động
més
##сы
So
đầu
95
##が
үшін
де
frá
huwa
sangat
64
sal
ari
энэ
##ကို
гэж
це
ham
pli
ara
##ме
હતી
tym
##స్
Ta
##ita
Ha
set
54
questo
bulan
##rs
##ut
ਇਹ
sudah
nui
نه
vel
Resimleri
ជា
futhi
way
você
2002
số
طور
##ui
1000
zur
##yi
##ہ
ئۇ
kiu
හා
##च
home
ʻia
day
##하는
nya
thành
които
2001
##ም
גם
now
51
casa
desde
çok
کرد
saat
China
ამ
##ный
იყო
ඇති
##ক
Foto
اگر
ngày
##lle
ima
му
noch
ការ
tra
هذا
##bo
##ಯ
ZIP
##తో
III
بود
hanya
Non
iad
вас
те
אַ
##ig
Энэ
##하고
##ר
ସେ
кои
mig
ли
sự
##з
mod
σας
ĉi
hi
59
មាន
rẹ
Cookies
##ine
##han
mua
uga
##tion
very
giá
នេះ
hiện
##gan
ते
tar
под
hè
link
jsou
##గా
##ben
wurde
sus
##nia
##das
##ного
ago
nin
strong
sản
##dos
కోసం
lại
tik
հետ
ጊዜ
kaya
##కు
ଏହା
dal
semua
anos
David
Te
ដែល
seg
izay
##ung
sinn
250
hal
hefur
53
##த்
ktoré
tema
jeung
quan
these
##্
година
ایران
ఇది
take
##nı
Za
##က
अपने
लागि
mumkin
काम
Free
nak
##ты
yuav
EU
##ಗಳನ್ನು
andre
گیا
##ssa
##ção
года
56
होते
Ez
svoje
níos
##ers
много
hay
toe
##де
sempre
vos
##nih
ਨਹੀਂ
việc
ovat
tad
uw
atá
ການ
know
ata
after
باشد
Ny
bahin
##nın
duke
ex
##ty
hana
janë
bagi
aŭ
off
long
hele
##ਾ
##와
##ran
##zo
cette
Amerika
godine
ጋር
chỉ
58
##ների
når
Но
nang
loo
juu
social
ieu
##era
دو
secara
back
even
izany
nun
naman
zoo
##ний
roto
salah
##도
jam
cũng
##ра
tôi
##nje
ike
может
See
mp3
বা
##ът
top
##ný
Tha
##ť
##jen
کار
two
jaar
##ց
будет
600
بار
plan
Er
kanthi
joka
аст
##થી
model
bon
Una
էր
više
## 
good
તો
##ble
##களை
kai
eða
baik
vez
baru
ble
им
kur
##च्या
##ल
57
##è
але
Для
kaip
120
করতে
ont
PC
são
было
того
eile
هو
masa
ʻana
ମୁଁ
کنید
હતો
ਹੋ
ወደ
design
Este
super
upang
##дан
inn
##ên
##ల
many
said
אני
blir
veel
Man
اپنے
##ske
út
anche
##rt
най
דער
време
Mar
anjeun
##án
হবে
3D
Việt
through
##ii
కూడా
##vat
hợp
##ea
bin
karena
tiek
jau
vya
તમે
నేను
هر
##ला
durch
she
tom
World
លោក
gaan
LED
##он
თუ
##を
grande
##ska
Ik
##мен
đó
##ч
ან
##ҳои
тоа
One
##ವನ್ನು
nước
##ll
నుండి
durante
##ken
##ව
час
##š
##ски
როგორც
##sen
volt
ወይም
jy
My
අතර
info
##lt
##ے
இது
##ት
And
ක්
xa
કરે
তে
egin
##ý
##tas
hy
edo
Europa
יותר
මෙම
tú
hebben
place
##क
zaidi
##mas
এর
##কে
solo
let
DE
##ной
comme
היא
##ción
##ње
kes
गरेको
##pe
##ל
800
base
भने
system
može
1999
then
دارد
יש
mag
##wo
गर्न
Ñy
##də
##ներ
India
hai
auto
##ją
kahi
நான்
bio
bara
ed
mot
andere
phải
##ं
Nu
hvor
время
ní
savo
aon
faire
ہو
blev
جس
##W
neeg
bod
uas
ob
მე
##fa
ਕੇ
hulle
zen
##nja
account
badan
thông
##ता
Trump
##che
made
utawa
استفاده
ہی
myös
tin
io
mid
ඇත
তার
которые
tias
business
tou
YouTube
##ies
##ӣ
##ში
##ле
##sı
##ল
gli
бу
sia
வேண்டும்
isi
##ite
chính
##ಗಳ
mere
כי
દ્વારા
если
##ийн
##po
féidir
jeho
##ам
ose
אם
buvo
Во
आप
Kwa
moja
izy
62
##zione
pẹlu
kell
yen
tapi
kg
teu
nhân
bar
Aku
đồng
bhí
чтобы
##ну
veya
Ali
ថា
Microsoft
અથવા
iyi
របស់
dadi
cao
した
있는
neu
mundo
##ט
final
aos
été
##نا
રીતે
lugar
should
##ди
uso
které
##Y
haar
ក្នុង
طرح
verið
onze
ಒಂದು
vill
United
ake
kale
##ዎች
##ria
súa
دی
noma
Page
France
85
iya
life
керек
вам
होता
также
කර
して
##lı
mé
ਇੱਕ
mewn
University
барои
##su
News
geen
þar
ສຳ
##ан
mula
IP
fait
можете
gia
pelo
memiliki
አንድ
pun
আমি
##ийг
##ski
kunnen
##ion
մի
која
По
hans
##ները
Ua
##ná
where
amet
байдаг
tij
قرار
##ная
art
##X
ਹੀ
sul
Dir
Re
định
##гүй
James
ул
real
sinh
seda
ਕਰਨ
him
At
##ու
malo
##に
ew
మీరు
ugu
##ම
USB
nyob
##ം
එය
වන
ná
nje
fram
caso
στον
##ным
##ada
oss
ను
vam
kutoka
##യും
beberapa
##ने
نظر
##ic
చాలా
কৰি
Ako
Om
यो
после
##lari
ala
Indonesia
pat
այն
total
ଯେ
które
oswa
tao
yana
çox
tiu
Wir
##ע
goed
##ે
ସହିତ
contra
jadi
love
app
khách
much
##ыг
voi
gibi
আর
Ar
մասին
hơn
##my
mehr
При
klima
##nen
mata
Street
povas
##nd
وقت
##és
vara
wake
Full
##res
કરવામાં
page
هذه
##ని
face
find
dute
대한
right
үчүн
world
##ят
##は
problema
local
Home
##ton
том
ska
mới
could
така
kasadpan
Если
phẩm
அவர்
قبل
කිරීම
quando
##que
##ene
kini
##ס
කළ
##men
बाद
trường
iba
##ро
дээр
här
##ите
әйтелеше
great
alt
sila
kwaye
theo
jer
County
Art
रूप
Paris
using
##ст
moment
situs
bahwa
God
deur
mà
ul
high
ishte
sang
aya
gyfer
Jag
koj
کي
kakhulu
లేదా
હું
mange
perlu
ал
used
Mo
હતું
στα
##nak
mes
στις
such
уже
jej
কিন্তু
až
61
sistem
problem
cấp
έχει
fin
##lan
უნდა
##land
yeni
bay
бір
jos
sai
eftir
##ب
kimi
байсан
##ем
##غا
hình
מה
##ї
два
đi
lea
Paul
##서
1998
because
nova
kwamba
##ो
apie
Hindi
What
pred
hiyo
##ң
cách
##ció
кој
atas
besar
saj
##cu
International
կարող
tim
ise
mus
tempat
##der
беше
show
waa
তিনি
72
باید
May
कारण
تک
##ಗೆ
test
있다
support
##할
week
Las
waar
thu
kadar
##ere
þá
before
##gen
##ți
þess
##uri
harus
same
Een
##are
END
tā
tri
luwih
##nn
viên
tamin
asi
när
vo
гэта
prima
sử
mint
services
Inc
siis
Club
jika
même
já
Maria
และ
##ė
ll
Han
gali
болон
##ei
mara
##ł
sans
##ী
##ele
って
есть
mao
lista
##pi
še
daga
Það
line
##len
ime
koe
##ді
##다
kuna
##ean
اما
raibh
kar
ro
tentang
ambayo
daripada
Her
##cia
##rea
nella
##তে
nuo
hija
sein
ಅವರು
jsem
##ात
##ms
მაგრამ
bheith
##nta
kanyang
Michael
##と
ty
यांनी
##сь
iyong
##ой
ĝi
contact
kasebut
nii
##tt
rumah
metros
##ок
START
nwere
Οι
mir
байх
Washington
alles
##اً
tua
##het
##át
thế
ຂອງ
porque
dheweke
bija
##ista
tuaj
aga
tej
điều
West
હોય
Ce
##ੇ
disse
##고
Em
zaman
trí
görə
এক
bhith
vụ
होती
thực
team
Pinterest
तथा
last
skulle
dahil
muito
तक
membuat
کسی
thì
Samsung
ነገር
ہم
Mr
Air
tipo
സ്
કરવા
1990
Web
##دىن
leur
esse
dana
essere
години
Bir
ur
##ira
ако
они
selle
ਉਹ
##bu
этом
کرتے
Awọn
Als
ces
ఉంది
daar
ele
pela
ທີ່
իր
ពី
shi
prin
tina
mg
його
##ې
##лы
masih
आज
yw
minangka
lori
него
momento
очень
Ich
کہا
треба
Van
temps
elle
##кі
iku
##स
store
being
epi
yoki
menggunakan
Ñp
thời
House
через
करते
helt
##nek
нэг
mesmo
##지
који
быть
この
só
gach
لیکن
English
Afrika
soti
também
વધુ
##য়
csak
kata
start
cas
kerak
##ului
します
Nahimutang
Plus
kudu
bona
peut
Op
##ura
diri
gün
notre
हा
wo
deg
આવે
gran
હતા
ад
čo
##ና
କରିବା
airson
huma
محمد
##ет
कुछ
પરંતુ
London
##ado
थियो
taun
isa
negara
##های
gebruik
##ж
nalika
कहा
მისი
##тай
##ную
مورد
form
czy
vas
wọn
California
może
ntchito
##son
##ಲ್ಲಿ
रहे
Azərbaycan
car
लेकिन
wê
dolor
yan
suka
hii
treba
गर्ने
look
##ک
Black
##ા
શકે
તેના
tego
yung
Center
වේ
##ર
très
nên
##kin
uno
ville
##ona
ஆனால்
Ho
jih
dhéanamh
##ud
Pour
vera
Super
दिया
には
Ba
name
##ida
merupakan
##ца
66
ਕਰ
ndipo
kia
IV
##ía
ግን
lakini
kien
այդ
euro
nye
trình
tagata
შემდეგ
Post
##합니다
##ata
cum
går
zuen
tyre
その
Вы
file
éta
Top
kali
##க்கு
tid
type
##тар
эле
над
tuo
##નું
##них
fer
ipsum
hành
##யை
latou
tatou
دیگر
There
##gu
मात्र
1997
Ltd
þegar
الى
suas
##lah
බව
mogu
Как
cael
cơ
##keun
можна
estado
کنند
##tes
##му
Ti
##nti
نیز
bola
wel
##san
более
kuin
software
რაც
mình
lý
ibabaw
elit
پیش
personal
በጣም
ئۈچۈن
ab
qua
समय
rin
63
68
##ෙන්
అని
Thomas
نام
tat
kazi
##ಕ್ಕೆ
Ke
clic
वह
habagatan
oor
##ләр
këtë
share
איך
ninu
ber
CD
##دا
down
Saya
##ner
IT
wan
ulohan
Nie
այս
those
ക്ക്
##ше
αυτό
hamwe
रहा
روز
finns
алып
##ও
Bank
tabi
Robert
असे
pēc
ին
просто
ໃນ
ჩვენ
ohun
آهي
weer
edhe
ይህ
##ës
product
još
leo
Website
Ако
към
##ua
بين
##્સ
మీ
زیادہ
##्स
må
National
##aj
amihanan
både
aussi
تر
bilang
dela
##ën
wala
pak
дә
හෝ
live
bagay
order
위해
moi
جب
kila
water
अधिक
бұл
bli
թե
god
nhận
Ya
ol
American
себе
aber
Barcelona
כדי
##து
máy
masalah
##မှာ
ਗਿਆ
esti
hos
කරන
ii
##sh
Në
##ling
či
USD
rất
##ం
lượng
But
Group
##hu
Italia
کریں
partir
##ન
programa
அல்லது
کرده
ktorý
ban
Бұл
ти
due
היה
بہت
ہوئے
1996
kòm
또는
##ş
немесе
ಆದರೆ
##ica
مەن
अब
67
Mga
Malaysia
##лары
Vous
saja
##ци
etter
yên
ਉਸ
produk
diese
By
rud
Dia
behar
area
koma
sí
vê
abantu
ကို
School
Santa
وجود
##ləri
bra
ਉਨ੍ਹਾਂ
##ית
صورت
ਕੀਤਾ
chúng
##ло
iwe
available
##th
Ég
бы
Saint
sendiri
giiniton
doen
Tag
George
svo
ήταν
vid
եմ
alta
faoi
tous
αλλά
vin
той
nghiệp
##ин
person
##tik
Pa
land
Yn
1995
##ზე
cả
put
##це
South
State
lè
ನೀವು
##υ
بن
waktu
pang
##tra
केली
##ف
dva
Да
dagat
bere
Alle
tetapi
##nom
##න්
Play
కు
##б
Star
Martin
काही
importante
bit
samt
الذي
gị
##dy
##les
think
ទៅ
aktar
تم
ಹಾಗೂ
lava
empresa
xuất
kodwa
each
ʻO
bare
tio
જો
tylko
dann
important
hij
own
tena
केले
phát
cùng
bus
around
kote
sun
מיט
Daten
##ही
ಇದು
ໄດ້
ہوں
got
selv
Og
siad
700
năng
կամ
lahat
##ire
អ្នក
##mba
Mp3
दिन
chất
##лық
जा
ilk
será
September
##기
##ри
Kui
ಅಥವಾ
##ert
##ima
##ón
Mit
##ão
ලෙස
tanto
##sk
پاکستان
engem
mahi
þú
නම්
##ting
really
serta
Real
hyn
kiuj
ନାହିଁ
sei
הם
##ד
չի
אבל
side
ਸਿੰਘ
mida
sidlakan
яго
কি
ml
Ek
##ay
todas
anti
wannan
tanpa
dwe
##ع
##お
waxaa
antes
sib
##ઓ
azt
nag
##টি
yoo
tele
onder
Amazon
menos
##mento
plej
public
она
דעם
ih
##iga
rata
mungkin
án
jis
წლის
##ile
##ah
point
På
შეიძლება
cần
تھے
allt
days
##zen
mong
##nes
##ии
تمام
আপনার
##yan
kết
album
Peter
98
##wi
enn
थी
tie
##ер
aad
μου
hau
##ant
##cha
##ц
##dor
саны
fod
antara
while
novo
деген
watu
шумо
##కి
1994
थे
##ја
puede
jan
जाता
گا
flere
vita
oni
bằng
dieser
ọrụ
Ihre
list
една
dá
até
kunt
##ээ
પછી
##lig
taip
În
kunne
dum
69
iā
պետք
##で
##ika
vs
##ist
Dette
کم
sta
আপনি
Songs
sme
hou
##ě
والے
laga
material
ਤਾਂ
wenn
eins
року
който
every
tikai
об
Grand
##ా
date
huet
gur
पण
nama
chur
līdz
xe
kēia
oko
شرکت
უფრო
hu
hvis
##cie
pral
##ndi
நீங்கள்
##ните
They
Это
آنها
##by
نامه
ginn
##யில்
болады
경우
vom
ilang
عنوان
Бу
##લ
How
meta
setiap
বি
onye
##dır
Ji
##sha
pole
onde
waxay
Your
stock
kif
##oa
saa
88
khác
maken
Kami
urang
unu
bilen
##თვის
gyda
день
jotka
три
76
كل
seorang
kuring
deux
article
##rin
news
case
##iya
chuid
Дар
اپنی
tla
##tor
ngo
sito
##बाट
انجام
მათ
iri
##Z
också
##ത്
muy
duhet
tuig
##ck
binne
किंवा
ane
Мы
##тэй
1992
EUR
Jan
##ela
kam
kamu
kat
must
tinggi
##ць
پایان
där
Med
zona
בין
pai
ఉన్న
který
More
который
ljudi
ол
code
size
##лык
##්
حال
##ଙ୍କ
too
Um
##ची
North
नै
sér
give
##യുടെ
якія
##лі
still
content
Red
meu
કોઈ
arba
edir
##cht
Don
ਆਪਣੇ
hais
తన
этого
mest
Madrid
tawo
đang
71
kanssa
olla
77
лет
bukan
כמו
autres
бойынша
heb
wil
##line
thiết
tur
mee
extra
baş
मा
över
normal
ev
bộ
74
Fotos
##nik
fara
کچھ
মধ্যে
tutti
milimetro
ans
раз
terus
dwar
pase
##chi
godina
día
##ların
##min
##ν
hei
##ent
##ně
تھی
##ска
eget
artikel
telefon
bol
nào
##ang
ئۇنىڭ
sehr
Jesus
მას
##נו
##யும்
із
##jiet
##ás
już
سره
ono
Resim
lên
78
пред
Road
mó
આવી
بی
نمی
độ
##yn
number
baina
Of
deres
már
még
##ové
anni
##ச்
##म
estar
##ත්
tiegħu
##లను
control
когда
bảo
##сть
ulan
wani
Mac
бул
##val
##cí
być
hafi
был
ਇਕ
96
nanging
būti
Como
##00
##ња
peb
Hvis
което
##ار
Tu
nrog
Mai
vám
bikin
##ା
điểm
73
hivyo
lat
모든
mil
izango
##aren
करता
##vu
motor
UK
pia
possible
tư
kiam
عمل
andra
Movie
vum
әйтелешен
toàn
Ал
ud
ankaŭ
cyane
William
sarta
več
však
byen
pola
siab
marketing
نہ
##એ
hiệu
##ée
180
mun
1991
hon
lòt
Beach
between
Untuk
என
بولۇپ
family
Jean
##tar
Go
Ben
gwo
જ્યારે
Fi
matag
hiji
کوئی
##dh
unter
loro
আছে
##ਆਂ
##ק
##चा
##ор
voru
##lin
months
האט
##ring
välja
##ന്
##rum
##rik
##inn
Please
туралы
##ق
kwambiri
다른
kuba
دیا
Ini
dir
там
##ју
wéi
##ко
Sed
penting
Dat
ntau
High
էլ
каб
fit
far
##syon
შესახებ
Media
tự
twee
##ರು
simple
مختلف
##J
##ম
đây
मी
##ಿ
1993
poate
melakukan
kua
##ක
##دىكى
modo
When
Music
ligger
nhưng
них
हुए
##ова
##ах
કરો
nila
##ния
সেই
turi
sub
Bi
úr
আমার
gi
také
ასევე
でも
Od
Click
experience
eerste
bardzo
logo
ως
86
##nim
විය
##گە
cầu
different
next
როდესაც
tốt
عام
harga
##dd
##č
කිරීමට
Pero
idea
##वर
inay
##rat
где
hội
ity
dus
នឹង
щоб
TripAdvisor
dara
##ala
##sko
mycket
fare
ok
naa
ketika
еще
tika
oan
gang
datos
dati
110
##चे
kabeh
##ara
ru
Mark
biết
loại
DVD
mặt
hoặc
mijn
Hà
bili
کشور
##mme
##입니다
##tus
##ret
información
yer
play
kerana
nr
zbog
første
going
जब
aig
ឲ្យ
võib
##ari
company
quis
##ige
tare
bike
##ger
през
82
window
84
មួយ
oge
ena
hər
phòng
años
noi
ntawv
اند
Lake
##ರ
yg
ее
multe
svoj
xi
banget
sebuah
þeir
বাবে
With
ratou
មិន
ae
digital
rasa
##ия
biri
arasında
yako
PM
tạo
hän
mare
open
hand
была
kuid
Read
теле
உள்ள
сам
lot
##ét
पहले
Big
gian
ყველა
##ih
dunia
као
92
book
Brasil
##ین
پس
##bar
dai
Day
nuair
based
Live
Business
azy
polo
други
бөгөөд
féin
81
does
один
करण्यात
metu
ĉe
غير
##인
بین
điện
nakon
kde
który
России
vie
menm
grupo
mon
jeden
##ು
wax
##ných
97
жылы
both
##ras
روی
tarafından
będzie
nisi
including
وی
##nə
school
бер
છો
without
akong
mens
گے
opp
Ak
след
чем
हम
өз
##ната
bản
Galaxy
Our
видео
tác
##ι
dobro
hệ
##해
زندگی
yam
Islam
Deze
##ट
proti
1980
شامل
Jika
чи
трябва
##nych
سی
zich
ហើយ
Ana
Videoları
NAME
već
King
എന്ന
##uje
sami
அந்த
MP3
करें
പി
Diese
болып
lalu
kod
استعمال
pot
گفت
##ň
89
dah
jūs
apik
ذلك
ավելի
##ҳо
##oni
нам
ඔබ
sous
mba
##ate
gibt
waxa
##న
79
manawa
kir
tres
فى
better
པའི
gå
olduğu
vores
##nan
ħafna
##jú
ante
tiếp
אחד
aquest
aho
syn
##ар
ár
things
биде
##ել
kahaboga
83
Design
Jak
mempunyai
buat
##yon
91
طرف
þetta
چه
Mwen
Bay
онлайн
आपण
##one
outros
ենք
style
ngā
unserer
##мі
##ami
google
ոչ
dun
muda
meget
før
Hy
##ian
він
menyang
godt
trước
द्वारा
kilometro
App
সঙ্গে
मैं
དང
lite
ద్వారా
eich
tế
tek
sheegay
તેની
vain
га
Ihnen
lgan
benar
vì
version
##ий
kinh
##iu
SA
کرنا
main
anpil
калі
كان
году
olduğunu
මම
କରିବାକୁ
kinainitan
kinabugnawan
dok
##ker
supaya
##ais
сүзләр
እንደ
##od
ກຳ
सकता
tháng
havas
kuv
##ाच्या
ਕੀਤੀ
America
League
##ті
cewa
System
##ez
##ना
##ati
Une
Nous
олон
pie
ils
##jos
##zu
serie
##тер
météo
poder
emas
##си
hierdie
kế
என்ற
також
##сти
standard
mobil
##ções
##لار
aina
##ٹ
ናቸው
Công
vu
Бул
đường
Smith
están
##нда
fast
Ein
hiki
गई
keď
tankou
##ली
kune
pati
stor
iOS
##tis
მხოლოდ
PDF
ingin
##된
##ں
original
primer
##ад
কৰা
kanë
мин
では
України
kala
93
صرف
##heid
емес
כך
##സ്
який
ମଧ୍ୟ
Data
सकते
अन्य
##sz
केला
մեջ
isə
langsung
bank
đối
আমাদের
można
general
తో
Com
बहुत
Im
շատ
87
ରେ
parti
боюнча
нужно
ega
noho
raha
##nis
siz
رہے
##ා
kon
qed
ياكى
check
así
πρέπει
hún
alam
##fi
##ש
manje
otu
হয়েছে
सरकार
tiene
тому
mobile
94
tiegħek
##ून
kerja
##vé
Mais
sehingga
##ության
##uar
अपनी
cukup
few
quality
mali
କିନ୍ତୁ
bem
между
Roma
##ද
tenei
कोई
always
վրա
##uk
##ās
является
mora
##jes
##களில்
semana
sekä
##cy
##dən
רק
dugu
Ir
atë
तीन
products
vår
mind
dân
Tom
biz
ଯାହା
дип
never
ਜੋ
##자
##iti
কথা
##تا
milli
عليه
fine
gun
##も
Esta
także
##į
duine
तरह
##ін
किसी
fazer
misy
##mer
##တွေ
කරන්න
egiten
##ಸ್
White
natural
ден
ཀྱི
##қа
old
##jte
Τα
ant
##ವು
هستند
זיך
रही
להיות
state
tâm
FC
tính
করেন
pl
kamar
did
mwa
##ј
às
##asi
chức
nieuwe
lê
jen
многу
était
noen
Як
Jo
თქვენ
कम
##mine
say
افراد
даже
kanilang
Quốc
dh
Wi
siden
##чи
Mail
gbogbo
song
iu
##sel
Tak
##යි
danych
ziren
bütün
dili
##ER
Trung
##ון
plis
##zy
comment
nito
##қ
তাদের
მან
acest
kwi
sera
##ך
tun
لم
Festival
kasi
quả
##ಯನ್ನು
olyan
anya
padha
خلال
עד
little
কোনো
minden
فقط
دي
کام
datt
Mas
Daniel
Lo
##nar
##ი
عدد
gore
ہونے
yuta
ଉପରେ
جا
##zzjoni
която
menu
mia
ће
##ron
music
URL
могут
Lee
Israel
koa
cui
při
##мо
რომლებიც
થાય
mung
った
##யின்
toda
sowie
##ник
henteu
image
##tta
क्या
##ké
سب
іх
Uma
Best
Island
sitt
despre
1989
lag
mtu
वाले
##nju
immer
uri
mafai
پی
उनले
તેને
również
##tur
നല്
Canada
##ਰ
bile
ingen
Now
len
వారు
אז
hur
lama
sport
##ći
sê
bán
én
fotografie
פֿאַר
##ક
сите
historia
April
Türkiye
found
हुने
thị
jwenn
address
ಮೇಲೆ
LA
##ena
That
tahu
##inen
همه
agar
también
அவர்கள்
Ing
dike
નહીં
sampai
seva
Love
przy
होने
text
sida
hali
wieder
če
phần
dine
##kom
tagħhom
அது
##ха
##ವಾಗಿ
ఆమె
byť
اسے
ერთი
Wat
movie
##van
##ey
wij
##ls
##ọ
μπορεί
sure
Latvijas
Så
κατά
isso
during
tetahi
##las
jalan
radio
Team
##nce
lei
lá
pernah
Har
být
gada
tino
sim
##ги
ond
bahan
giúp
mudah
оны
ನಿಮ್ಮ
##দের
način
nın
mini
questa
##се
bağlı
nich
hoki
##ide
गरेका
melalui
кога
something
##rd
yêu
luar
ch
three
nás
ainda
iar
##երի
ನಾನು
ឆ្នាំ
mano
Game
sulla
भारत
status
ef
Kim
Film
hûn
okanye
arte
няма
ಅವರ
dùng
won
130
دا
trang
lawv
Euro
waren
পৰা
lungsod
ដោយ
сте
##ج
giới
עס
ପରେ
##ային
रहेको
##use
كه
যদি
##ами
##ët
две
##ә
ganz
anh
##ня
##ություն
toho
read
basa
নিয়ে
Green
barn
nay
nada
करना
##ча
degli
##је
##ನ
විට
##ும்
Jos
nói
đẹp
today
##cija
txog
hadde
ilay
##پ
بات
dịch
ebe
lill
jenis
έχουν
घर
Song
##िंग
nome
##чы
centro
keine
##ער
ידי
эсвэл
gì
##ės
tag
##ғы
Wenn
##ക്ക്
##α
थिए
bao
موضوع
digunakan
##ган
memberikan
गए
tamén
país
hingga
tip
ہوا
##ු
bersama
Informationen
Met
Klik
melihat
provide
хэрэгтэй
utama
fai
##ü
wees
oedd
алар
رقم
giải
కానీ
niin
هي
ત્યારે
lamang
Tai
Але
##قا
cap
tiasa
##ali
Charles
mang
##ien
než
kei
werd
då
160
##ley
än
আমরা
##ő
করার
Europe
##taj
табылган
900
તેઓ
ore
##か
##sin
après
även
kanye
eines
chọn
change
##ber
##pu
##ًا
leta
nec
masu
##ей
##aa
##य
ये
ער
மேலும்
##yê
ăn
vị
m2
хүн
ਕਿਹਾ
یکی
deve
որը
Son
AS
માં
cosa
##дың
സി
しい
duwe
##ਨ
þeim
MB
##ым
##ende
людей
wanda
Ai
##nej
omwe
duen
නිසා
Ia
parë
##tia
sale
നിന്ന്
vad
tv
мне
خواهد
Som
карда
##té
என்
көп
##нын
हजार
persona
tips
dagen
##nza
सभी
Hier
Min
त्या
сайт
offer
##ša
##É
büyük
ảnh
click
##ani
ander
Australia
ነበር
ତାଙ୍କ
##nog
Radio
តែ
dening
fue
തന്നെ
പറഞ്ഞു
##aan
dom
chủ
ajo
cyangwa
pertama
algo
մեր
##ē
jedan
##పై
avy
Max
##ova
akeh
sina
Hill
болуп
babagan
350
Postal
##etan
please
όπως
thức
ён
process
##ב
kekahi
doanh
dalla
global
със
140
chak
color
##ई
dating
##ա
आपल्या
Tapi
laikā
cele
Casino
troch
সাথে
شهر
Richard
Nan
شروع
kitu
ən
います
против
##kas
detta
avoir
##tzen
öz
иде
πιο
було
Ale
Am
đại
Dalam
କରି
ці
dapit
##дә
enim
1970
cel
daoine
ਹੋਰ
modern
වූ
##wy
ami
iṣẹ
දී
इसके
schon
ਜਾਂ
Texas
báo
pasi
అతను
бик
byl
بولغان
##vad
ביותר
vse
##met
دهد
تي
##եր
##nou
food
эзләп
##num
sababu
##zwa
cuando
siv
tình
جدید
ଭାବରେ
фото
حاصل
jums
amach
iş
થઈ
sine
SMS
##ili
Ní
##ris
Так
maak
Ki
##த்தை
##ç
another
முதல்
sydd
ÑÄ
naše
##pen
##una
Maar
vegna
bħala
lớn
horas
ман
##ል
नेपाल
možete
##ier
##са
Apa
داشته
работы
teh
##če
موقع
peu
##mus
##ג
##ु
##ので
Мен
##لىرى
jego
travay
سایت
কৰে
within
bû
##ville
vetëm
finden
నా
Anna
ઉપયોગ
font
आता
رو
bheil
ditu
##tte
##ගේ
##tti
Here
werk
##ि
zuwa
##ši
trị
адам
esa
lus
utan
دست
ווי
nego
savu
tana
noe
meter
##jas
хамгийн
бъде
dak
તરીકે
বলে
tawm
##че
bha
nueva
##ák
##iz
##og
massa
ທ່ານ
sebelum
chini
##per
##א
##rar
haghaidh
Não
ती
väga
eto
Нәтиҗәләр
কিছু
amely
гэсэн
forum
tiền
##ದಲ್ಲಿ
під
##ୁ
access
##є
ഇത്
mirë
म्हणून
ның
##ore
rok
hard
hasta
ukuze
اليوم
निर्माण
##ڭ
tài
##ء
છું
Auto
ditt
Он
##zioni
small
##ू
maith
কোন
всех
sekolah
tussen
आवश्यक
kr
თქვენი
нет
kapa
prema
##let
##дар
##য়
பல
##मध्ये
год
xav
ปี
পারে
ਪਰ
##ser
senza
ಬಗ್ಗೆ
kalau
però
NA
pamoja
буде
ямар
##्
où
ÑÄÑ
वे
thường
всички
stato
този
נישט
ese
since
facebook
##ons
Все
Cov
memang
તમારા
##tà
proses
برنامه
html
πολύ
##ပြီး
##ства
disa
Asia
která
जानकारी
Office
sena
ترین
رہا
consectetur
room
##ಿಂದ
nám
ме
College
hver
тулд
lona
##യാണ്
kirin
##ೆ
место
Ku
##න
Mary
call
לי
##adh
body
format
##ту
Su
ត្រូវ
samme
##ല്
anyar
کرتا
##ство
##chen
einfach
Open
କରେ
হয়
nagu
hati
kull
حکومت
terhadap
loʻo
##적
yin
kbps
mejor
125
Alexa
khoom
runga
metro
eme
thấy
wanita
##larda
új
biasa
akkor
hà
##ться
looking
koju
familia
lle
PubMed
##ன்
bagian
perusahaan
unsere
Kung
labai
tham
##owe
triển
soos
baie
lena
אתה
jsme
hom
שלך
txoj
себя
Din
zi
hade
लोगों
ଅଧିକ
huo
##ි
gambar
Če
Hapit
يمكن
taimi
उन्होंने
##कर
նաեւ
осы
##ną
##rio
оның
gör
sala
##ò
##ին
Que
kufanya
boli
nema
encore
всего
verður
پہلے
prej
aquí
##ական
ისინი
número
again
##ys
##ף
##ði
##AN
photo
nalukop
##fu
##ila
тут
било
WordPress
power
kula
пра
mwaka
ola
liyane
nahi
##ஸ்
##ale
аны
સુધી
նա
dio
dentro
នោះ
iji
iPad
mult
trebuie
toga
كما
bl
சில
ನಾವು
ನಲ್ಲಿ
staat
sii
zomwe
avea
Ad
East
##வும்
might
lil
අපි
അത്
Land
onun
Tablet
siku
Central
đề
pilihan
kus
tüm
ide
bawah
##ына
kuni
vás
méi
ariko
DC
katoa
داده
많은
اب
kira
##ல்
قیمت
אל
habe
apo
სხვა
suna
Sport
कई
ہر
אי
kapena
##hin
able
dr
ලබා
страна
##hen
בכל
kwadrado
بازی
group
Pada
Blog
yén
##୍
Македонија
Blue
sini
αυτή
review
##ার
Nội
vitae
pessoas
gba
##ور
موجود
হয়ে
jų
##ड
ela
##களின்
nako
##цца
maua
##lis
vaše
volta
informasi
level
principal
їх
איר
anyị
##ז
price
tập
અમે
pháp
ගැන
##ciones
palju
گئی
qab
##երը
General
работа
Bar
##اء
সে
##berg
##ła
ده
Life
OK
уу
##ţi
##tet
ingkang
masyarakat
zal
##യില്
Soomaaliya
її
##ден
liên
item
جائے
yfir
red
ove
مطابق
leat
beim
ndani
أي
big
Այս
ibu
hvordan
monde
##ال
тел
project
যায়
आले
##гы
ནས
nende
उपयोग
avant
Mobile
estos
sakit
ብቻ
##ою
kubwa
այլ
##gas
hacer
##lse
غیر
apre
conta
viac
भारतीय
Lorem
حتى
zai
She
dintre
Dengan
հետո
##ці
360
дөрес
କିଛି
فِي
Paulo
dul
Nr
Jack
ես
سان
selama
drugi
sò
بیشتر
lehet
ụlọ
ఉంటుంది
تاريخ
იგი
##аў
##цы
maaaring
vol
##ाची
##ula
done
##යක්
##نگ
mhux
##ное
મને
1988
maior
keep
##би
komanso
ይችላል
şekilde
##وا
sammen
ton
మేము
juda
##тан
##ном
##했다
##ens
saben
istifadə
##miz
##िक
ના
sol
నుంచి
kollha
সময়
HP
dilakukan
mór
pdf
mindre
anderen
ogni
Bhí
pan
sis
też
sada
ໜຶ່ງ
nl
course
##ша
vis
dont
sier
##နဲ့
##ых
உங்கள்
libro
Yang
##িত
Cymru
photos
taka
##ند
mutta
kohta
##ં
биш
São
കെ
##େ
##lə
ktorá
##cije
kin
больше
nå
pran
##lia
नाम
قد
hope
##mit
Be
Inn
لیے
later
Ou
Des
single
начин
market
##tin
אויף
Rock
Jones
bor
Wie
##able
##ane
Times
##lara
##ები
মই
مردم
Yo
gera
##ব
hóa
segundo
Els
bwa
Bei
Kako
करून
болгон
##sse
یې
Royal
primeiro
hui
iray
ਮੈਂ
##kt
bệnh
manera
Ĉi
GB
##аа
##eni
sitio
овој
edib
нема
ඔහු
గురించి
below
सबसे
नेपाली
mendapatkan
hora
ông
olona
##iro
datang
answer
Power
anthu
wara
บาท
உள்ளது
lalawigan
Store
esto
nostra
gaat
direkt
இல்லை
ಮೂಲಕ
##шы
Company
##ver
special
begin
loa
dự
njia
بسیار
mode
##гә
kong
November
ambao
##ius
Social
дараа
меня
göre
lākou
ինչ
통해
Link
include
kind
membantu
##tha
ସେମାନେ
feel
göra
tí
genom
liv
함께
##ି
punto
ʻike
ech
gjithë
Out
lokal
ato
компании
qilish
##än
tkun
Email
fois
þeirra
Ihr
във
قَالَ
Long
muss
través
ছিল
افغانستان
sao
taea
##તા
##ið
DNA
дома
môže
gas
##ய
SEO
ՀՀ
аб
##ade
geus
minutes
विकास
question
rehiyon
##스
gusto
இருந்து
එම
ہوتا
tog
hunn
अध्यक्ष
##ք
inter
##دە
sedan
bonus
class
نظام
قابل
koko
जाते
personas
tiuj
oer
##ure
dalka
tab
Ford
papa
verir
paar
working
##nto
porta
आपको
ÑyÑ
makan
##િંગ
ください
sekarang
jekk
svoju
##им
away
grandes
idi
bodo
##ِ
Harry
دې
cya
സര്
가장
Global
nekoliko
##ven
خان
daya
legal
ngati
nom
Par
##sia
##ej
мо
זו
##נים
области
nes
Casa
101
ໜ້າ
igen
##ి
##স
مجھے
свою
mari
hanno
Kun
##nye
نیست
তা
gael
দিয়ে
Kanada
tới
cảm
tăng
kõik
nahimutangan
##лер
marca
##ши
##tos
čas
nhiên
коли
kort
cidade
tèt
kèk
sasa
един
##ाने
しています
etmək
कमी
baada
код
##ু
LINK
##하여
būs
Ci
еден
راه
kapab
##어
##jí
đơn
direct
iye
повеќе
hemm
##მა
##нің
sites
OTHER
hjá
omdat
##ted
pale
pono
ens
nyt
것을
Ev
job
kwe
bang
pili
ખૂબ
##াৰ
Mu
times
Johnson
しました
thống
کردن
##ive
tahay
انہوں
kembali
compte
बार
zato
molt
##ाचा
alleen
##ित
таксама
তবে
ÑpÑ
##ých
יכול
onda
また
##ino
hul
ನಮ್ಮ
suite
event
ធ្វើ
Watch
diesem
tagħha
stand
LLC
##ନ
##ನ್ನು
Հայաստանի
##ությունը
money
Eu
popular
свой
making
धेरै
Opens
ເປັນ
##ong
centre
sosial
сол
computer
health
ਦੀਆਂ
States
molto
ainsi
Biz
같은
život
OS
wî
lần
días
large
چند
توسط
action
##тын
second
বলেন
إذا
পর
ياخشى
1960
yakho
stop
вони
толькі
vet
##ал
yaiku
tento
ਕੋਈ
oħra
presidente
##ಯಲ್ಲಿ
##ני
හැකි
କିମ୍ବା
radi
audio
వారి
jour
run
زمان
view
thi
3000
fins
following
તેમના
לאחר
Kita
quốc
zuten
tê
پیدا
walang
बात
groot
ଆମେ
house
Chris
ਕਰੋ
namin
ਗਈ
Tas
empresas
agora
##een
године
##ín
##ட்
nekaj
خدمات
сайн
szerint
coa
liệu
Та
marang
więcej
प्राप्त
mukaan
Time
داد
aqui
кто
política
barang
mma
laat
mgbe
giao
több
ùn
##нд
hasil
त्यामुळे
قانون
ļoti
fie
மிகவும்
loko
##ነት
Fotografia
damit
தான்
सर्व
کتاب
šo
හැකිය
komen
5000
##fe
kartu
अनुसार
self
kulit
αν
tay
isteach
enda
lib
questions
Това
elu
qué
वर्ष
sok
больш
fotos
##များ
past
بخش
Resort
Ach
କରିଥିଲେ
hoạt
community
thương
ئەڭ
trọng
hori
jaoks
башка
abre
Christian
tant
kamera
##യ
può
buku
autre
Management
biss
cur
గా
##তা
##pan
אותו
suis
itilize
million
кулланучы
##هم
جميع
kurang
1986
ਨਾ
##tel
easy
create
Brown
എസ്
ఉన్నాయి
##tä
left
terbaik
Oh
##čka
##ਲ
مثل
##ील
##ama
ਜਾ
необходимо
setelah
ES
zoals
##ից
##ര്
кадәр
##ete
##gt
Für
##lerin
Au
কৰিব
ਤੁਸੀਂ
ĝin
ISO
права
eigen
masuk
why
##ის
انتخاب
nombre
tìm
Agus
également
nisu
Nova
още
nota
లేదు
##ове
অনেক
saab
osa
गरिएको
Ñr
درباره
##чки
Các
taua
##್
mensen
ego
deb
Når
##ness
Yon
Ñu
dẫn
իսկ
তারা
##ज
vle
были
ມີ
nyuma
##ி
Villa
бути
Sony
असून
Server
ສະ
اسلامی
saber
##tud
ŝi
##дын
หรือ
दो
ਰਹੇ
मध्ये
عرض
эмес
##ksi
1987
##টা
##dar
##କ
meie
##ови
story
elke
Bet
aquesta
sawetara
dito
हुआ
pele
văn
details
Ви
случае
उनके
ilin
جاتا
ఆయన
आफ्नो
anjeunna
sedang
Francisco
რადგან
ohne
depuis
ನಂತರ
देश
lenei
server
mich
1985
đổi
Site
matou
ይችላሉ
яздырган
इन
amháin
քանի
araw
##ै
għandhom
denna
apenas
##ija
add
Artikel
metų
##יה
എം
Was
club
August
үед
этой
זאת
prije
##لىق
Қазақстан
бас
aking
ହେଉଛି
bài
kona
##сын
qədər
contre
##ба
##mis
eil
View
watch
כמה
Rio
tiêu
Show
फिर
iyang
september
sido
##jon
quá
##sten
hot
##കൾ
இருக்கும்
éis
duten
кейін
විසින්
دور
kecil
Louis
##യിൽ
##eri
Anjeun
##ice
##larni
##ние
profil
Denne
unui
bata
लाख
lọ
neue
search
dawn
##ation
ideal
Nem
GPS
Δεν
dire
##న్
Би
izao
Questo
जाने
##ры
можа
Við
moins
በኋላ
болох
není
presente
biệt
آخر
magna
жұмыс
##lui
jkun
אך
vista
tega
ले
##ाचे
аның
tax
שפּיל
ئەمما
gr
छैन
ôl
בית
Program
1984
private
##ую
neste
##ют
##ح
Tags
ຄຳ
নতুন
##uka
många
vấn
##në
jista
Studio
##ux
quam
تحت
pihak
មក
sekali
pagina
against
VI
Zeit
Jahr
ça
Ons
ёстой
##ça
jetë
kota
wurden
bai
маш
ovo
ilgili
party
##ння
حقوق
dni
ինչպես
leh
కలిగి
UE
oblasti
devas
##ano
user
city
וואָס
Lietuvos
##יות
perfect
امام
Digital
diferentes
informatie
वा
ဟု
bom
aghaidh
##nna
право
কাজ
##த்தில்
##သည်
سر
diris
Tour
ladi
Creative
children
եք
Sam
1500
بىز
##age
هایی
була
##ਣ
त्यांनी
gut
توجه
hoa
falta
##ž
muốn
Berlin
trở
тази
nú
གི
iets
bilər
काय
##yu
jpg
როგორ
શું
timp
Dans
Joseph
pasar
pane
ժամանակ
địa
diren
##ების
बारे
##wan
##ue
bag
Juan
##ties
brand
##נה
valor
##nú
##हरू
strani
před
pom
IN
Një
când
განმავლობაში
toutes
соң
band
##ു
sense
leurs
##ак
էին
##йте
Old
kontakt
##cio
হতে
sống
##ской
politik
nibh
##ൻ
بدون
##ү
Services
vairāk
ned
илүү
Hall
Mike
Cup
ring
series
##ose
podem
langkung
жок
produkt
cô
එක
diẹ
##מה
хоёр
họ
##్
हुन्छ
عَنْ
Kaj
druge
Just
قىلىش
více
These
κάθε
ezt
għandu
gure
##ते
euros
mér
##nden
##ого
##ros
ihr
After
mille
##ndan
prvi
byla
වී
##eren
iho
നിര്
##či
luga
إن
belum
BMW
professional
heel
haka
மூலம்
oras
##tzeko
pel
##ு
этот
ihre
около
donc
Standard
##Ñ
awal
pop
##lərin
teie
##och
pärast
ferheng
##iem
Tämä
hidup
##ab
tiempo
wuxuu
තුළ
asa
شخص
Florida
##တဲ့
بارے
rad
sent
nouvelle
##še
##တော့
రెండు
Gratis
anns
жизни
může
bolo
můžete
დიდი
Donald
مِنْ
mor
camera
##mise
przed
тој
##ο
както
##ss
Nou
sech
δύο
нең
nthawi
kaikki
##കള്
という
maha
##kel
##hia
प्रमुख
chuyển
##like
nipa
##nos
sesuai
ھەر
##ர்
komme
شوند
wè
hwn
##ket
pula
Cuenta
tiết
ئۇلار
prix
બે
sagði
គឺ
क्षेत्र
already
två
uko
فیلم
mos
área
##cji
болды
##тың
prie
##하지
fazla
##ስ
dėl
berada
Centre
ਕੀ
yao
duit
##eta
ahau
என்பது
Antonio
jednak
toate
કારણ
خاص
##یں
Adam
För
MS
amma
jedna
быў
##ай
DA
μόνο
##rii
ਹਾਂ
Hann
كېيىن
masing
اين
populasyon
try
follow
##ట్
lainnya
Union
##est
Estados
מאוד
бүх
բայց
cando
számára
dessa
گئے
##нан
##cja
saan
tany
ਰਿਹਾ
##tir
није
цього
mine
doar
оваа
BBC
ʻole
अशी
month
##하게
gara
##ф
يا
पास
Can
kienet
турында
##വും
zou
دوران
##ח
##द
##bus
cena
કરીને
Kas
casino
AC
grand
تولید
tome
quanto
olaraq
साल
##mm
לפני
Για
alikuwa
سطح
##ora
toute
ат
млн
két
mesin
##시
youtube
##sto
aasta
##ese
üle
HTML
интернет
keer
Voor
البحث
lor
hata
dikin
haujlwm
ofte
192
bahawa
որոնք
trung
First
pois
umum
Up
따라
##ында
був
kore
huu
җиткерегез
Bill
Дусларыгызга
River
ás
##дің
lịch
melhor
celu
##sy
არა
bliver
აქვს
projekt
card
Dar
thing
hadi
##하기
bụrụ
अनेक
##nas
##tat
termasuk
tsara
##ori
Eesti
yahay
##že
दी
jälkeen
μετά
low
banda
##كە
##ץ
đặt
sebe
##हरु
trẻ
##кой
מי
мүмкін
أكثر
тем
Gold
bog
ry
vrijeme
Iran
sian
böyük
ын
saman
cuộc
ବୋଲି
Henry
grad
##uta
något
altri
информация
##sku
అయితే
ניתן
okkar
Manager
دارند
##lık
##nica
##mą
සමඟ
##ங்கள்
км
##за
एका
##ise
mama
prodotti
nhau
bên
##дер
svojim
když
aha
nivel
studio
##Q
##త
##ity
##დ
eh
students
uur
نىڭ
tutto
дел
rekao
तयार
##ola
mam
گی
האָט
##fo
دنیا
primeira
هغه
rehetra
giờ
acu
105
qanday
ABŞ
##ውን
grup
Note
##ico
lực
آب
લોકો
विशेष
Enero
vers
Joe
Ол
ብዙ
##ним
pris
José
שלי
anys
##ս
há
σου
alat
គេ
വര്
##rie
domu
ogé
##ль
Williams
##less
##களுக்கு
ikiwa
США
thêm
adipiscing
phí
##чна
memberi
مجلس
##if
kasar
##ake
macam
entènèt
Great
noa
sea
##ách
box
گزارش
##്
##व
དུ
tug
sobie
jumlah
сайта
Obama
##ण
cz
##sch
##ট
tangan
##э
ngayon
val
مي
nagyon
sáng
##ныя
ты
EN
games
শুরু
úsáid
sili
##ाला
اینکه
donde
ris
али
##гі
cung
mercado
tour
mezi
malam
Estado
partner
իրենց
झाले
qhia
Marie
##dı
ақ
kati
Chicago
zure
cù
thứ
guru
##net
önce
strane
ÑuÑ
után
daugiau
hae
rada
ĝis
келген
उन्हें
chuyên
light
მიერ
tagħna
nagy
dago
Për
ukoll
metus
komt
અન્ય
kawaida
lsa
application
favor
neza
són
Health
kurie
Lai
VIDEO
clients
##®
kuva
olen
foarte
olika
einnig
gjatë
veliko
yangu
تهران
correo
دەپ
warna
zien
smartphone
hours
##tic
cost
Japan
ያለው
##ు
##din
nuova
##bile
##eko
siitä
##С
##tsa
##प
##ան
kwanza
chuir
στους
##ib
ሰው
Ada
wann
##ରୁ
##tal
بعض
folk
nội
##aka
##kar
gus
##šanas
qual
##ಾ
Not
بازار
##gar
hoàn
ứng
вода
##set
##ை
будзе
خلاف
màu
tes
premier
ពេល
firma
hefyd
metal
##վում
dies
olib
performance
sebab
вэ
Ao
राज्य
sel
##tie
সব
Hi
پاس
жоқ
té
CA
stvari
estão
inuu
primera
باشقا
nešto
آیا
தனது
##রা
होगा
Software
tijd
##lich
##리
перед
kubva
##ින්
អាច
կողմից
сайте
nulla
nyingi
España
ар
ນຳ
bydd
vēl
##িক
tro
tiếng
चाहिए
chaw
És
منذ
nunca
miaka
Jahren
oldu
##nge
Jakarta
vẫn
буд
Bangla
டி
یو
üks
kedua
##ി
gegen
Sun
##yə
Glosbe
နဲ့
plant
baby
Bộ
wanneer
która
staff
Tim
##nni
대해
pasti
आली
sọ
đất
לו
महिला
झाली
danas
tomu
country
nodig
тэр
Namun
sở
első
pemain
Commons
продукти
##cions
##ాలు
tista
isto
のお
makanan
ਗਏ
داخل
tonu
کنیم
velit
##А
nicht
Ei
staan
també
##ff
Point
receive
других
mogelijk
হচ্ছে
uk
şey
см
Ina
##lwa
것입니다
mondo
binnen
fall
हुन
politika
Forum
oro
kura
value
így
##ato
alltid
obra
tangata
nuestra
obair
ປະ
images
गर्दै
यदि
needs
oso
وزیر
##گ
poden
として
sách
##ру
##сыз
когато
sui
mete
##ാ
এটা
Lan
##nost
ଅଛି
##isa
##ىنى
rast
teb
linn
##kou
дня
bent
المتحدة
dog
##ithe
##xa
Photo
ever
Kev
others
festival
nghệ
##ված
##uan
ଥିବା
చేశారు
atanapi
Це
##በት
##isi
মনে
##ngan
Frank
Marketing
##нең
suo
علي
sitä
दोन
Miss
کان
lima
nini
cuenta
##τα
கொண்டு
zelo
nilai
aki
##mat
##ಗಳಲ್ಲಿ
bé
اسلام
بوده
شدن
##iri
##ix
fo
##Р
meses
huis
##nice
Seite
বিভিন্ন
##uma
پھر
mitte
Press
phone
entrada
Flash
##ման
anno
thaum
עבור
pouvez
שלנו
ਬਹੁਤ
tích
outras
Lè
væri
##kat
Kad
несколько
##했습니다
Eine
##ლი
##ee
head
nggawe
ଜଣେ
Express
##მ
gjithashtu
night
حول
Sant
##së
pret
Get
නමුත්
tegen
എന്ന്
Smart
deel
nə
Angeles
taas
##sche
ତୁମେ
soit
faia
добре
står
Lub
produtos
##kal
##사
browser
मुझे
pamamagitan
яка
drive
ჩვენი
kl
ཡོད
చేసిన
tổ
##gang
Und
sociale
Ин
gjitha
úgy
Manchester
darba
ძალიან
kjo
avait
usando
página
лица
basis
mnie
alan
تواند
##eve
##ви
##нинг
دولت
måste
Wij
tên
которая
offers
பி
##yle
teo
До
ovaj
energia
яны
Tento
paj
Jesu
##ero
preko
th
система
ತಮ್ಮ
##িল
भन्ने
##rer
##oti
450
means
које
##jų
##ته
места
medio
umuntu
##ių
하는
ийн
Dunay
Yeni
##ду
Ve
nëse
tsev
Mini
##eg
problemas
##gh
dựng
SD
Pokud
alang
kanya
##ový
1983
kont
سازمان
##لەر
qualquer
música
ഞാൻ
Þetta
միայն
tuổi
dê
vivo
pouco
οποία
1982
ова
مواد
less
DJ
modelo
papel
жыл
මත
যা
Scott
onu
##վել
حيث
huko
conditions
office
programu
نوع
mert
inom
lu
будут
données
nhập
##rna
Tidak
שלא
##ča
together
सुरू
것이
момент
bërë
ყველაზე
##ር
##ев
kweli
Kjo
micca
ایم
until
استان
कार्यक्रम
outro
galima
kite
ajal
##iva
aplikasi
##த்தின்
همچنین
بیان
moderne
tudo
kugirango
campo
tez
1950
içinde
Pri
menarik
པོ
kau
další
##ది
într
##만
##ünk
повече
hoy
siji
pea
بولىدۇ
ihany
ук
iti
##ые
Log
teen
##RA
ngunit
uair
says
mense
##سى
veľmi
220
اے
proces
якщо
dados
##leg
ሁኔታ
deyil
България
まで
tshaj
मुख्य
##성
còn
ĉar
col
agam
hit
##ன
kemudian
bylo
amarga
ທຳ
buy
آموزش
שלו
toujours
մենք
ọzọ
sett
зүйл
Alex
research
##ft
anggota
դա
##ాన్ని
kinne
NO
minut
работи
अशा
##larını
място
fire
source
erat
જોઈએ
##ээр
##én
కాదు
bad
permainan
##чка
болса
tona
sakop
##nika
იმ
videos
England
fearr
sekitar
deste
baba
##સ
weet
tỉnh
From
bất
putea
imwe
##аар
मला
##ія
menehi
Tsy
ਦਿੱਤਾ
mye
##ата
##urs
талаар
sèvi
яе
करा
chat
በዚህ
xã
ønsker
всегда
tərəfindən
##ਕ
1945
hela
phố
##the
फिल्म
chomh
quy
##tako
reira
space
mbi
getur
ඔබට
nua
మంది
diverse
volgende
ਜਿਸ
mencari
ప్రతి
move
Rwanda
ቤት
Master
चार
edi
##ede
tsim
Series
##sal
chế
يتم
এখন
lishi
black
alisema
Sir
التعليقات
khu
ind
ಗೆ
rock
ملک
הזה
konsa
##jā
hänen
Test
Katika
Ito
Kurdish
Creek
klik
1979
Steve
После
baino
oft
bentuk
ඔවුන්
ger
yadda
tiež
##ham
dui
aা
##ков
##ൽ
##ON
##트
kontrol
##క
ની
ала
والی
Ili
lia
Unidos
tiga
دانلود
προς
##NG
##ām
President
platform
hace
usar
##ছে
phương
berbagai
থাকে
markii
##dur
mogą
produits
ಹೆಚ್ಚು
Mỹ
tās
նոր
соли
سه
բոլոր
##siz
transport
gerne
##wać
thích
quem
tjetër
مصر
##ono
eest
വി
fr
худ
update
합니다
##qa
ker
170
makes
park
##cin
seine
freisin
fino
links
म्हणजे
える
##నే
##ping
amfani
iche
Anh
सेवा
##ول
seng
ಆನ್ಲೈನ್
##ază
bayan
fe
এটি
leor
басқа
jejich
üzrə
Kan
jonka
minute
ngay
zwei
##nosti
त्यांना
##ция
jours
amikor
##ती
Huwa
された
moje
##los
ଥିଲା
##owy
ضرورت
olur
після
apabila
хто
acara
dacă
své
তাই
future
visa
jistgħu
innan
often
тези
Sen
lana
либо
дейін
mjög
ملی
అన్ని
##ster
debe
##maan
mulai
##vá
##jan
##llo
erhalten
fháil
tingkat
verwendet
första
داشت
julọ
གྱི
Вам
##wyd
اطلاعات
vrlo
jó
become
muhimu
url
ថ្ងៃ
života
mostra
yaxshi
segir
человек
unei
ting
sehemu
havde
muab
wrth
##ag
років
mah
또한
gode
roinnt
उच्च
rate
##10
##ram
kim
##ып
##ndə
ир
ਵਾਲੇ
Africa
avèk
период
##ୀ
marka
ჩემი
jei
network
མི
hin
όταν
Är
altijd
##čne
དེ
වඩා
mois
sector
lelei
viel
زیر
түгел
##σε
કહ્યું
##री
ಅನ್ನು
moda
ngan
iga
그리고
save
##ły
Restaurant
ଯଦି
##idh
Share
арқылы
causa
ក៏
dias
ماه
##ый
ĉiuj
gëtt
ទេ
একটা
Ten
##ਿਆ
log
ਕਿਸੇ
Linux
Och
haere
##чу
##tă
items
seks
Disney
ដល់
झाला
NY
tiden
##മായി
TP
neki
kaore
bith
amor
cat
giảm
प्रत्येक
رنگ
##NA
možné
nuevo
mesta
slik
##ご
##மாக
Museum
minggu
չեն
Deus
Nanging
1978
واحد
cultura
zaradi
ایجاد
terjadi
punt
tiegħi
Agar
##най
մեկ
Anne
egen
trabalho
quyết
ibang
##ký
Model
daudz
interior
having
ວ່າ
manusia
WhatsApp
Valley
ਬਾਅਦ
Journal
eles
##ными
juba
lapho
någon
naye
vật
Nws
##сан
quelques
##shi
ceann
प्रदेश
feira
କରନ୍ତି
##mist
##vel
kino
Til
##મ
##ins
ede
wektu
management
حضور
##ciju
##ً
heç
nós
ialah
kena
milyon
மக்கள்
имеет
print
Калі
Games
itt
Με
nữ
##ದೆ
Hollywood
quyền
mënyrë
apan
केही
Bitcoin
##ام
1975
ligne
##owych
Jahre
było
dibe
##sini
mākou
##வை
ادامه
roa
असा
ಎಂಬ
bisnis
kishte
Yesu
note
đặc
თქვა
fokus
vind
1981
##မှ
message
ერთ
Você
##tse
batho
SE
hvad
##ပါ
sio
##ld
Semalt
බොහෝ
pueden
свои
bone
ဖြစ်ပါတယ်
Iki
дали
Hot
وَ
##ában
international
##hed
selalu
vậy
seja
tror
має
##τε
avez
ຈະ
dane
sababaraha
range
LG
fim
именно
##ust
съм
THE
diğer
points
మాత్రమే
##ної
Hal
люди
lange
##ovi
eden
##ئی
##ğı
මට
انسان
đánh
aastal
inu
korero
##mbo
xem
сарын
nostro
cai
авах
thuật
##ido
edən
lalo
autor
என்ன
մեծ
Ĝi
anmeldelser
##ල
visi
seluruh
##nir
público
##ени
reading
puta
jetzt
Bluetooth
होत
үйл
yaxşı
تاریخ
trợ
ನನ್ನ
ngoài
ranei
temu
##ase
##נות
##적인
xây
jeszcze
wkoll
chez
tincidunt
akin
ਸਨ
នៃ
spam
Cross
დროს
uile
##ского
stort
Cette
compartir
اول
unique
Chrome
risk
Menschen
ຈຳ
##ich
ਕੁਝ
chưa
posts
foram
dois
muna
terra
called
زبان
mēs
Shop
dollar
##ੋ
కొన్ని
##يات
CO
##ик
customer
st
שם
##ската
Nederland
pays
कुनै
bilder
उपलब्ध
taobh
##ियों
tử
jie
machen
front
نشان
निर्णय
ដើម្បី
செய்ய
живот
đều
##না
pet
machine
افزایش
לך
bora
nuestro
kalite
уште
þau
តាម
వరకు
##ਮ
Welt
options
ახალი
##lon
nouveau
mala
болсон
##osa
##yen
लोग
الإعلان
ישראל
tutte
Якщо
##יים
deui
Western
mate
poco
PVC
client
tetap
זענען
moto
##lli
vært
бид
eman
gmail
numero
teraz
##्या
Jeśli
##mar
##ాల
Jei
ên
twitter
alguns
odio
Association
Under
より
features
rằng
sposób
bine
Orrialdearen
ainult
которых
ús
##ებს
blive
php
dopo
weg
भएका
wao
##анд
##iden
सबै
##ille
સમય
Мин
once
berkata
কে
האם
તમને
nasa
cá
##ස්
lado
поради
tím
között
שהוא
сега
លើ
fis
##ds
enye
သည်
ibi
করুন
Unë
##hana
అది
ft
complete
training
РФ
Huawei
била
wako
nuovo
nok
quod
باعث
balik
போது
দিন
ત્યાં
##dia
жақсы
uni
Deutschland
wengi
cela
wote
lwm
Про
seit
kuat
бе
capital
##vis
sabi
كېرەك
gdy
עוד
নেই
ទី
ଆପଣ
നിന്നും
ນີ້
Korea
ձեր
enger
Pentru
rol
анын
shop
בו
булган
##од
qho
რა
##යේ
keluarga
saada
##ком
kỳ
болот
дуже
liom
තිබේ
između
gjøre
cos
cun
podľa
ollut
##šu
##ତା
pay
beliau
にも
Net
હવે
restaurant
შორის
mismo
བྱེད
slot
bedre
pedig
##hat
вид
bana
حل
మా
لوگوں
##ור
##wyr
kupata
##ో
Youtube
çdo
Ihrer
duk
electrónico
gadā
យើង
ולא
dakong
comes
Carlos
panahon
delen
##လည်း
eniyan
##ена
ici
major
Ook
ගත
չէ
##йн
dall
broj
permet
alte
તમારી
бил
##šanu
majd
women
Trong
##ल्या
tục
några
soll
hướng
steeds
وجہ
pé
خبر
akwụkwọ
བོད
temperatura
##ਤ
inaweza
był
Bansa
friends
боломжтой
informations
wieħed
ел
करणे
vendar
cerca
##up
key
##ить
superior
yng
나는
##يا
tych
##sis
আগে
வரை
العربية
екі
##́
aige
chifukwa
dedi
때문에
podle
firmy
102
წელს
##게
law
AI
required
माहिती
тым
##ová
guide
tos
μέσα
##oi
nk
средства
libre
ولا
علی
değil
विभिन्न
verschillende
хийх
Cookie
##ische
Bạn
Taylor
bør
Premium
année
Sur
विचार
##rit
lit
mina
geri
Let
රී
sedikit
along
lesz
visit
##lta
ʻano
thủ
אַז
##isen
##ega
ໃຫ້
kuten
uning
rundt
kuris
experiencia
##ың
##vanje
##ká
enough
minimum
##yla
tiel
gente
imaju
##zio
समेत
sức
Những
karakter
મારા
Yen
Jehova
પાસે
Pas
##iert
ກັບ
đăng
##uz
kelas
mūsų
voit
phân
owo
Box
white
gjort
##ného
Most
##മാണ്
##ční
okkur
alto
رئيس
zelf
##ime
asta
fordi
devam
tseem
Jadi
karibu
pp
mbere
112
எஸ்
часа
bắt
Port
jwèt
ਤੱਕ
persone
ایس
four
yê
tuleb
partie
thay
##niu
deri
magaalada
Young
dieses
شي
mắt
pracy
Set
Come
##ż
enkelt
tačiau
##rak
luna
Baby
teeb
produkter
पुलिस
AM
mellom
gdje
sagt
viņa
##tura
nếu
##imi
быць
նրա
belə
dobre
जीवन
##から
tengah
hér
iżda
boshqa
familie
करण्यासाठी
depan
ins
##ڈ
sitten
petit
vit
atawa
viņš
##тің
CEO
असेल
##ە
evento
Mountain
ләкин
teha
##ನ್
lập
हुई
nėra
мм
आला
ශ්
otros
##rne
Kong
dtí
यांच्या
Atua
Ann
કર્યું
##면
savoir
grote
tíma
neng
série
above
##čni
pei
##ларын
111
اللہ
шуд
ში
kroz
აშშ
tasi
##း
বছর
jednom
##kwa
Mexico
vừa
gaya
forte
ori
latest
adres
ita
dib
across
లు
##wana
mums
virus
Selain
hawwe
mitt
едно
එක්
καθώς
travail
error
Tinipong
جاری
##thi
sistemi
দেখা
เช่น
kleine
sumber
biến
getting
montre
phụ
##elo
efa
alors
sadece
റെ
Rose
Door
zama
عضو
128
nawet
společnosti
aja
يىلى
Sin
antaŭ
##të
Nacional
Start
Victoria
njih
agad
उसके
short
lokacin
##don
litt
zonke
##لىك
sya
юу
bình
dunay
χρόνια
1974
ene
musí
June
British
location
اللَّهِ
fari
sahaja
Elle
kokapena
##bili
osoba
penyakit
ildə
mars
unrhyw
##zza
##zia
1976
მათი
ব্যবহার
دے
##del
##ր
phục
115
##ії
ký
halda
þessu
אשר
ممکن
இரண்டு
table
önemli
##lere
вот
बताए
Costa
tofauti
##డ్
ללא
ST
Lê
technology
ទាំង
Ze
xəbər
voir
potom
යුතුය
##တွင်
Hän
human
mengambil
Va
libero
cepat
புதிய
##uh
##cm
240
yet
jauh
երբ
उसे
pirms
##stä
તેમની
nghiệm
vă
batean
hva
aza
##nun
##ಗಳಿಗೆ
forme
##யாக
Гэта
அவரது
pare
כאשר
##će
môžete
##ർ
medzi
ഏറ്റവും
niile
बीच
sering
вже
היו
mengenai
භාවිතා
කරයි
##장
mise
Good
unit
يەنە
report
108
daug
didn
least
bho
posto
neid
गरी
Donec
##bel
mati
ran
hilo
104
lige
profesional
Ver
От
пры
प्रयोग
Fotó
Drive
##ulo
example
##via
நாங்கள்
segunda
diam
##ಕ
mengatakan
ją
све
mitä
bring
Mercedes
Liga
mellan
بلغ
ceny
drugih
##wu
niż
يې
già
tenê
##ら
Jackson
##igh
Mei
pra
articles
request
adresse
онҳо
kii
जे
talaga
حق
هل
wale
thân
fora
tomto
Line
ମଧ୍ୟରେ
##dza
##ّ
personnes
რამდენიმე
essa
industry
##lat
قسم
Hong
ish
isku
पार्टी
protiv
ಯಾವುದೇ
الآن
خرید
saiki
ең
часто
उस
goede
טוב
##ओं
##lige
كۆپ
gebruikt
Stok
такой
ҳам
informazioni
noget
કામ
Mereka
##수
იყოს
talagsaon
##zie
##kov
año
diesen
आपके
jelas
ais
##šana
دن
osób
ව්
##ਂ
nove
प्रकार
دانشگاه
таких
##dade
option
mear
1977
ular
##ssä
وسلم
kaha
yıl
UV
cómo
insan
koos
ilikuwa
مناسب
##yor
justo
drie
कुरा
aman
mọi
noong
aller
##nud
ngerti
kabanay
valsts
##yên
##කට
permite
##වා
Norge
સૌથી
pau
velmi
altres
clientes
ewwel
तसेच
reikia
କହିଛନ୍ତି
season
ሰዎች
pandan
تلاش
tiên
abin
Bob
Nguyễn
niveau
##ské
zwischen
cái
Nos
utilisation
viene
verder
##ń
kienu
sèlman
Хэрэв
##ン
هیچ
raug
इसे
echt
таго
taona
##com
rapport
कार्य
podczas
ڪري
внимание
tale
человека
அதன்
हुन्
##ས
કર્યો
vaid
##å
viele
nguvu
##cs
त्यांच्या
ընթացքում
War
CE
PS
વિશે
nhanh
##ții
##imo
යුතු
nell
##nio
తరువాత
Hai
ਹੋਣ
##ging
position
##yı
fase
wasu
##wood
##ție
さい
posible
unde
kasino
1920
##වල
##ić
Book
##나
wiki
සිදු
Hulyo
held
معلومات
Nach
توان
tungkol
назад
عدم
Eta
ثبت
Mario
roce
عمر
När
शुरू
କରିଛନ୍ତି
API
##ì
kaže
##чно
etsa
##կ
tanah
друг
weekend
##ర్
vedno
##ांना
mampu
Kota
билан
פֿון
elo
கடந்த
triệu
keur
ideas
103
##ło
jossa
1973
Grande
##ля
Jr
teknik
##യെ
것은
##unk
mme
bari
همراه
imong
समस्या
àwọn
##்
вона
جن
አይደለም
##tzea
mạnh
દરેક
ក្រុម
etwas
sisi
している
offre
##ати
То
750
panas
ಮಾತ್ರ
Fall
PR
būtų
nic
oke
nipasẹ
manier
birlikte
jim
##ө
##nym
win
були
ئۇلارنىڭ
Ул
могат
meno
Airport
panjang
більше
sendo
kho
Alla
##lega
neuen
1972
செய்து
gikan
pm
##ין
dve
мешавад
گروه
cause
মোৰ
stress
ғана
##্য
altre
mezin
hak
development
گرفته
individual
එහි
tala
тие
آئی
새로운
aynı
match
をお
наш
będą
chaque
manaʻo
produit
сделать
##되는
Network
العام
būt
Ut
hala
Pierre
##تىن
oe
ಎಸ್
առաջին
LinkedIn
doesn
##დან
pergi
##oja
gedhe
especial
hapa
bener
##eng
Little
nosso
results
सिंह
επίσης
komon
ilma
Royalty
khona
hynny
אחר
maraming
Centro
ប្រទេស
məlumat
##хои
cuid
##вання
mob
yii
Oslo
байж
production
があります
fått
Bình
##ö
Ona
yaitu
members
personer
doing
##ön
tali
времени
hekk
Sep
##lio
Portugal
##า
үр
учун
mmoja
அரசு
например
##です
##их
##TE
العمل
част
अगर
өөр
pari
ఇతర
दुई
unë
##ટ
##ish
##ous
ahaa
kiện
ଭଲ
ԱՄՆ
kraju
haya
poste
aliaj
Hoe
##적으로
sidlakang
##way
known
##iv
##ит
##ẹ
jusqu
medyo
##ios
olub
kiun
##zwe
##эд
hnub
Science
##skih
##ող
1968
murah
ine
poker
dous
##ел
rete
Dios
derfor
kinadul
vann
diện
toy
egyik
Без
imali
actual
ඔබේ
faut
ਸਮੇਂ
##ಸಿ
##ral
paljon
kõige
اجتماعی
European
Nokia
Что
vier
res
исто
Market
nzuri
Analytics
Văn
لقد
проблем
Toyota
##եց
##ques
rohkem
guerra
Nutzung
##lerini
جنگ
luôn
Catalunya
##bil
paub
programma
namun
##mann
annan
geht
close
बताया
eso
sahip
Mungu
бизнес
فروش
иш
أضف
Pakistan
වැඩි
##TA
learn
aiki
sest
fy
uzun
##taan
center
мекунад
##ско
րդ
deja
Аз
nia
ón
சி
##iai
##eli
είχε
##nka
יום
completo
છીએ
##bare
ارائه
કરતા
एवं
##rn
Find
##áil
olish
property
bizim
जारी
хувьд
##ଟି
vực
lòng
вече
ancora
##תי
לכל
mbili
μία
##னர்
арасында
систем
nganti
##য়ে
term
Videos
العالم
Sverige
yun
Ovo
ئۇنى
puno
କେବଳ
gehiago
བའི
آهن
Dina
map
maging
kuphela
våra
current
quand
ໝາຍ
##ね
member
bakeng
acordo
LCD
##ék
eis
president
IL
##сці
##ሉ
kuidas
Euskal
스톡
##larının
href
již
योजना
често
سفر
toirt
everything
Alexander
Federal
алу
კიდევ
terug
auctor
##lama
nytt
кон
situation
bezwen
বেশি
কাছে
Hotels
Nord
човек
ຄວາມ
history
Con
անգամ
##മായ
których
##वा
##ांच्या
газар
ទៀត
##ভাবে
Code
peuvent
Quando
##čno
မှာ
innych
ନୁହେଁ
באופן
##ves
ବିଷୟରେ
facer
##ntes
minder
तरी
sex
led
gebruiken
kuu
nature
പുതിയ
முடியும்
student
##iza
Беларусі
bụla
जी
とは
tel
എന്നാല്
gaba
તેથી
gihabogon
July
နှင့်
##эн
כבר
ერთად
हर
pagal
bahasa
svi
тиеш
თამაში
building
вельмі
math
සිට
लेकर
##ann
Jawa
panel
sab
яки
giáo
đình
ਰਹੀ
мене
##ngo
τι
gir
##ਸ
continue
Minh
кард
Technology
Party
assim
##vanja
March
څخه
nhỏ
##usi
##minen
stad
yakhe
низ
همین
againn
sèl
우리는
различни
semakin
desta
##issa
നിങ്ങൾ
habang
барлық
esan
مهم
robh
kinahabogang
beda
##ونه
##ावर
tener
ಮಾಡಿ
##জ
veces
maakt
nossa
بزرگ
Ban
ventana
tulad
ଏହାର
ambiente
тим
olisi
pr
##лари
వద్ద
எம்
started
Czy
ਸਕਦਾ
Pre
één
تعداد
üzerinde
particular
##illa
##ნ
bya
khai
पानी
thabhairt
consequat
යන
eivät
port
jouw
ತನ್ನ
volume
gihulagway
זי
dituzte
##ži
நாம்
tada
actually
دلیل
newydd
corpo
guztiak
resmi
##्य
lin
##نے
chứng
تنها
produktu
сез
ntawd
ਹੋਏ
1969
central
##ವಾದ
آمریکا
yalnız
##ନ୍
žena
ovog
##اب
preto
niini
כן
events
Kevin
bolj
Kuv
BÉEä
ਕੰਮ
Search
though
பற்றி
ئىككى
όλα
Change
бити
þó
Suid
Sports
OF
શકો
тільки
ngoba
Sarah
dunha
konto
ради
PA
##화
dadka
visu
מיר
waxaana
##wania
ਕਰਦੇ
Andrew
ਕਰਕੇ
##ள்
bob
болж
шулай
ಅದು
bermain
layanan
iawn
multaj
bereits
kontra
luam
ਬਾਰੇ
##اد
credit
gel
ovom
##ที่
Iyo
अलग
nơi
mesto
several
##щи
mellem
Ман
gần
сме
##ත
##зи
ਵੱਲੋਂ
teknologi
txhua
kommen
сатып
buhay
eau
Vegas
lik
تیم
kahenera
ફક્ત
සමග
twa
##ુ
رہی
##зе
ਤੁਹਾਨੂੰ
equipo
ambaye
##ээс
nové
අද
kawm
кор
vệ
Espesye
barədə
##wch
цаг
##ский
##eti
##ści
1200
Milli
##vý
nasıl
করেছেন
ടി
mynd
##nių
ଦ୍ୱାରା
gjør
begitu
##iet
stále
նաև
HIV
ještě
##या
Food
Σε
זיי
1971
max
Nga
mẹ
##की
half
လို့
पूर्ण
своей
stata
услуги
##aga
kahit
عکس
informações
ہوئی
Galicia
gjorde
truyền
Kenya
आर्थिक
рублей
यस
arra
vuonna
ਹੁਣ
##ман
tras
Bij
ولی
жол
##aha
government
##can
national
##kite
##ña
chuẩn
##rekin
будь
Somaliland
##ņu
##IN
Kalau
##ση
Suba
afin
ତେବେ
##ப்பட்ட
nelle
Nếu
በላይ
otro
سیاسی
trè
##ර
نقل
##adi
dut
tượng
lalaki
visas
send
одного
paper
الموقع
ngeunaan
അദ്ദേഹം
Boston
små
existe
bayi
konnen
RT
##드
кезде
aantal
Are
songs
преди
Ved
olnud
bal
яшчэ
그러나
قىلىپ
χωρίς
Vám
Sri
obi
եթե
janten
Elizabeth
nunc
1967
Siz
جهت
##rana
Via
Spa
לעשות
haqqında
##ਟ
yek
katanya
travel
hao
شركة
મેં
pár
##ell
ორი
koliko
எந்த
pab
dễ
##ką
Unternehmen
ແມ່ນ
seguir
таму
##ps
mūsu
diễn
koska
Control
sĩ
тухай
kabul
өмнө
##ść
minha
minutos
usaha
času
khusus
fundit
##হ
тек
ਜੀ
ខ្ញុំ
106
cili
nka
##ieren
##ო
كانت
chơi
##्न
જેમ
futuro
cet
##ల్
cea
Album
бъдат
Вас
πως
Sau
دوست
thanh
ktorí
можуть
آغاز
plusieurs
pakati
kaki
يېڭى
##idade
Kini
vinden
##ht
uden
ମୋର
સામાન્ય
سىز
##vät
ଅଟେ
чейин
سازی
hubungan
бага
doi
tiba
##ക്
ניט
mucho
pob
হিসেবে
sarà
nge
jaroj
However
##يل
##ું
cualquier
##eka
ahli
hanggang
nafasi
##vali
đạo
Tamil
भाग
##tí
beautiful
tidligere
##ست
tämän
Sy
Ew
enam
viser
adunay
neke
##ĝo
patag
novi
Đại
naj
প্ৰ
##لا
každý
##ంగా
pagi
##ସ
##ции
##ća
Auf
##ses
quản
ila
##ech
Ինչպես
##ങ്ങൾ
##kus
المفضلة
record
chance
نو
luchd
1940
moeten
nyumba
age
##дин
recensioni
kiến
السعودية
malah
haqida
fáil
qualité
gây
##tanga
برخی
##ণ
target
ਸਾਲ
enige
menunjukkan
სადაც
ụzọ
решение
peyi
Hans
など
aranjeunna
resultados
ଯେତେବେଳେ
خارج
مشاهدة
olması
kuru
ସେହି
nies
##ao
##ante
стоит
##ec
කියලා
būtu
wiele
loob
##fer
жеке
dele
Simon
està
unseren
nouvo
title
##σαν
ہمارے
akoko
Ihren
bagaimana
##lit
exemplo
sesuatu
laten
donne
Premier
لپاره
collection
##ста
inne
##elle
chan
Egy
Gen
Ελλάδα
авч
કેટલાક
میرے
mety
hyd
##களும்
##ط
точно
vidi
върху
living
oleks
egiteko
उत्तर
bàn
Kai
teda
информации
##வர்
הרבה
iso
perkara
moni
##vas
##க
नयाँ
ekstra
##con
Golden
Amsterdam
Ես
Rs
Honda
casos
đồ
companies
món
director
phakathi
добро
##ങ്ങള്
özel
kukhala
##lang
qabel
sätt
يكون
ከሆነ
għandha
izinto
минут
Intel
première
tagasi
жаңа
##mia
vždy
위한
ఎక్కువ
FM
суд
uvijek
fejn
enfants
##ത
##mak
##ува
faz
##чен
##ēt
déjà
fans
Είναι
multi
لے
totonu
taj
sud
##iste
doit
##တယ်
প্রথম
rồi
ενώ
##ская
lokale
farklı
ọna
نیاز
असते
ئەمەس
болған
viena
буй
кунед
perché
proceso
kuko
customers
graag
##mai
Jim
კი
ʻoe
ضد
maidir
hale
beaucoup
بالا
ára
estaba
אחת
Like
bekerja
mnogo
olid
##су
זמן
##ées
lời
exemple
арналған
müssen
Uhr
aðeins
Kuna
дом
cửa
детей
Visa
yari
کننده
hoje
tejto
artean
dll
Light
##rte
keluar
dabei
##િક
пайда
compra
##kii
tama
##anna
cy
Research
star
zote
whai
nogle
return
happy
##됩니다
##car
Project
lua
cover
rokov
rebloggato
issues
Person
Chinese
##čky
kie
added
arabera
security
produto
steach
ishin
nggunakake
nguyên
##υς
Ничек
EA
hebt
haholo
##nici
index
をご
##ligt
wilayah
лише
carte
Amma
mio
આપણે
Ми
digər
Тоҷикистон
iarraidh
tarde
Foundation
प्रदान
giver
hasi
chéad
часу
واقع
near
môžu
PT
Golf
##ING
RAM
tani
faktor
aínda
కి
ཡིན
동안
thought
alatt
##ថា
lau
ст
##ום
doğru
##jem
يوم
trabajo
kanak
ಪ್ರತಿ
angen
olmak
TO
ٿي
Wakati
##ම්
##ını
AB
Institute
Abu
tiam
నాకు
stil
given
روش
realmente
##년
خو
##ito
Có
Avenue
seen
##hy
મારી
1930
എല്ലാ
अहिले
provided
chiến
berlaku
Ah
##원
Ora
ära
लिया
WiFi
sales
##ligi
дән
Haz
hakkında
durant
isu
gelek
ym
ਸਰਕਾਰ
strony
ngaphandle
gwneud
zina
centra
uku
કરવાની
VIP
eens
ལས
ekonomi
арга
cam
Virginia
##rus
Car
قال
##ību
bwo
Check
स्थानीय
vuoden
similar
yeri
jobb
wurdt
study
Family
toujou
ਆਪਣੀ
რომელსაც
jiġu
##ил
Edward
dnes
mpya
bwino
PP
deal
Ef
##క్
##श
Και
##iau
siempre
early
favorite
kawasan
aikana
መካከል
charge
##гийн
ishlab
jedno
stellen
үз
ගැනීමට
mij
हमारे
outra
##jet
אנחנו
kogu
##وي
צריך
##во
##dad
##erd
int
մոտ
##eur
mí
sɛ
tempor
centrum
있으며
kojima
##sson
Or
dzieci
##گی
valamint
করেছে
هزار
##tada
##ಂತೆ
ਪੰਜਾਬ
երկու
кийин
double
Pedro
зур
Daar
Luis
havia
##৷
அதை
lah
khiến
maneh
असलेल्या
##ቱ
яна
##ük
ତାହା
Եթե
байланысты
sil
nimi
क्योंकि
##ांनी
Ano
Band
cáo
##ının
येथे
ደግሞ
##ئي
##jar
වන්නේ
aire
રહ્યા
published
ಎಲ್ಲಾ
Một
također
107
Dheweke
##ota
##burg
Ryan
yihiin
##noj
kara
bas
നിങ്ങളുടെ
İstanbul
##лік
иң
tuku
##OS
Kaibigan
बंद
selepas
French
Fort
recherche
##€
Hari
meaning
hvert
bizi
procent
Estas
więc
пен
##до
liste
visita
tämä
Pan
idir
##лик
uang
កម្ពុជា
heart
lorem
своите
##enie
eyi
##sed
दौरान
wahi
اصلی
Kaya
klub
##лен
among
vode
کمک
tulaga
jednu
tetep
ien
নাম
1965
fou
זיין
उनकी
##nega
##IS
части
tjera
kaluar
##ത്തിന്റെ
pengalaman
uyu
súas
fear
voidaan
също
Vai
##し
Lagu
જાય
estilo
وارد
recursos
barra
##ють
lassen
Forex
čak
##ngu
biste
teny
##ए
тях
రూ
minuta
sto
##లకు
users
pisan
akhir
##rwa
хийж
came
##gy
वाली
##ಲ್
##লে
##nės
gelen
##М
##ие
fá
Jūs
##ే
issue
पूर्व
master
##ಟ್
element
eri
Како
hartu
Liverpool
industri
ምንም
renmen
Name
кај
vremena
##յան
Also
wou
ବ୍ୟବହାର
بل
##מות
जैसे
ثم
hatte
attività
##ových
خدا
##aya
##ване
SP
सुरु
lors
ئارقىلىق
##ете
##들이
aici
aftur
cổ
tujuan
ସହ
toto
maisha
سکتے
दोनों
##ത്തില്
வரும்
جانے
gjennom
##ëve
septembre
Netflix
circa
මහතා
Public
afọ
iktar
것으로
לנו
поэтому
አስፈላጊ
parantos
bene
brez
다시
güzel
##tų
яхшы
Lord
Ama
##تے
جانب
ملف
خىل
related
mauris
কৰিবল
someone
могу
دوره
neće
ذریعہ
tým
शामिल
##ای
Main
Fa
##น
zonder
##ðu
yüksek
paha
cứu
بها
musim
newsletter
Argentina
pH
pages
करत
##aza
ntse
selbst
تېخىمۇ
sát
##ቶች
altro
želite
anali
dema
utiliza
##žu
##ታ
productos
##owa
5G
Ohio
male
Hay
ٹی
##lag
wneud
##일
Ed
Spring
դուք
energy
135
Inggris
sens
лучше
##пен
taon
##acha
укыла
vastu
##ful
MA
итеп
mendapat
##ас
Más
##чни
ਪਹਿਲਾਂ
herî
مدد
czas
Fig
CO2
gwaith
jūsu
##ానికి
చేయడానికి
mene
cyo
rhai
ве
తర్వాత
##ве
bih
labi
true
ആണ്
viết
mennesker
بررسی
صاحب
##čke
punika
klar
##ré
bietet
ennen
សម្រាប់
thuộc
seni
אָנליין
Má
##دى
される
служба
##한다
khó
##یم
केवल
مانند
حد
Albert
##ција
Comment
جمع
jeśli
Church
##lus
hir
finde
##dal
##iad
##ген
ሁሉ
muka
##သော
રહી
പ്രവര്
Ech
privacy
करू
Scholar
جهان
##llä
terdapat
lợi
போன்ற
さん
##stvo
homoj
##ნის
##nzi
midagi
ជាមួយ
portal
ከፍተኛ
##сті
მის
weitere
않습니다
annat
1944
##ES
दिए
banjur
כאן
laŭ
இன்று
##नी
చెప్పారు
clear
यहां
მომხმარებლის
kapag
waard
ਅੱਜ
Information
ftit
цел
परंतु
ใน
خانه
Pak
عند
365
vilket
kodu
190
ваш
Daily
zone
landet
ఎలా
tijdens
exe
Türk
པར
বুলি
ਜਦੋਂ
кебек
geta
säger
տեղի
بنا
Kuring
etahi
ምን
ਲੋਕਾਂ
መጠን
brug
premye
зі
##ard
hea
inden
Wall
##ium
took
cei
yote
आम्ही
taken
деца
Eiropas
ને
Town
##ör
дней
ulasan
books
یہاں
വളരെ
Nakon
عبد
naam
áður
Pou
gov
primo
ʻaʻole
эти
Nov
pouze
каршы
mugihe
##vin
##லாம்
##تی
ọmọ
కొత్త
iTunes
energie
منابع
היום
שני
Ieu
ასე
##lja
Xbox
Station
Durch
##jat
duzu
traballo
ఇప్పుడు
ÑyÑu
peste
gemaakt
Të
##ଙ୍କୁ
##ének
જરૂર
által
وهو
##ici
pool
livre
haft
दिली
Next
šta
##vať
##log
##П
гана
qiladi
##ding
tubuh
fact
Will
ہوتی
##ള്
qeyd
त्यो
allen
##ības
ਸਭ
ཞིག
festa
Со
rive
##они
السلام
üçin
Daha
estava
그는
Image
bort
đưa
Tako
anders
109
posta
##ında
Bad
naon
tae
##fen
##MA
##な
гэтага
##ун
##َ
ngenxa
NBA
xác
ersten
realizar
Kur
וואס
langt
prieš
five
##מים
توانید
Plan
##ev
##lardan
musik
Some
олар
нови
کردند
kunna
period
شکل
whole
##ير
життя
Last
былі
მეტი
##ụ
##ego
ndeleng
IS
Manuel
meni
##ù
##ára
lejn
snel
гә
Santiago
fu
حضرت
vanaf
ένας
beter
tekst
Chi
এমন
##ða
дигар
leven
##eo
කටයුතු
দুই
chống
imma
Ray
##り
momba
trực
##oma
kendi
##তি
буенча
amelyek
ئوخشاش
ክፍል
عَلَيْهِ
##uru
році
shows
##К
سیستم
##wych
##ች
dekat
prova
hvað
honetan
##miseks
дни
Hun
దాని
kutumia
HR
أنه
##wane
##দ
mọ
Papa
Diego
România
nguva
October
4000
##wanie
tatau
Dictionary
Hij
gegevens
nganggo
Profil
Ўзбекистон
##bb
اللَّهُ
indrindra
natura
возможность
Patrick
depois
mẫu
שלהם
ହେବ
എന്റെ
dalje
đủ
Community
baten
field
biaya
بیش
Care
cours
##දී
present
මගේ
каде
zamanda
##ય
Här
wangu
##nk
Sampeyan
##ங்களை
první
oil
320
якая
باز
bieten
അല്ലെങ്കിൽ
ڈی
went
parece
Todos
##ncia
Hội
جان
બધા
өте
##ip
bỏ
լավ
enjoy
ముందు
##ек
bħal
##тары
UN
##uti
##ນ
screen
##har
પ્રથમ
##tua
##rta
AP
Indian
Türkmenistanyň
باب
Motor
اثر
avons
Jose
hold
دارای
yicha
کل
##ű
tablet
قىلغان
##tiva
siyang
##esi
Kada
works
sắc
##ția
##ത്തിന്
driver
الأسعار
そして
använder
بشكل
display
අනුව
bunu
solution
raz
শেষ
##swa
kap
слова
१०
Bundan
##ார்
Limited
νέα
علم
marrë
Bild
rua
provides
katta
друга
மீது
etmek
##kę
potrebno
această
##ா
उनको
بولسا
আপুনি
##ੂ
persoas
Lady
##гу
našich
Why
Kodwa
##inu
tinh
##aí
##ına
sien
dha
rangi
informacji
ўсё
Гэхдээ
ارشد
nhiệm
##bat
iyon
kabisa
жакшы
Bydd
léir
##த்து
##ĝis
више
wae
menn
##čna
hen
phong
کنم
ლექსიკონი
fem
barcha
young
dài
gøre
behöver
flash
nekā
Eric
läbi
daw
##čių
دستگاه
##mes
Jalan
##Д
loc
cool
##gia
ساعت
været
1941
gain
έναν
бораи
postal
болсо
Hospital
عَلَى
Carolina
selon
Европа
lengkap
ему
bởi
isla
почти
##ség
Lista
##ojn
crear
##ella
sot
मोदी
##ая
Tony
##ル
processo
количество
אנו
dung
Garden
##yň
aron
believe
##dagi
##Т
possibile
حتی
nostri
mỗi
сейчас
parents
নয়
##នេះ
ვიდრე
COM
günü
specific
Muhammad
##dwa
anden
דבר
##тен
verða
kasus
wi
টাকা
খুব
μέχρι
ма
jste
цьому
##mų
##ਦਾ
Россия
significa
Oktober
نسبت
suatu
agosto
##ám
dk
forhold
fatto
sejak
гэтым
saxlayın
droit
काठमाडौं
##ған
langkah
SC
Ca
mogli
ولكن
lett
People
તેમને
nice
third
wy
Friday
##olo
piano
คือ
glede
Matt
temat
##lne
putem
##ब
lelaki
##tek
##wr
vini
AT
hizo
##iset
##ize
dwa
mavjud
नेता
##ща
până
##ża
230
здесь
турган
bezala
ତୁମର
icon
##ár
طراحی
гол
منطقه
encontrar
altra
talk
তো
kids
##య
última
baka
akik
vaega
boa
શરૂ
زمین
tellus
మధ్య
protection
##ونو
direkte
všetky
giữa
אנשים
##ema
малко
ہوگا
rest
Bilder
பின்னர்
ابن
компания
dưới
Singapore
niyang
jangan
etdi
кандай
przypadku
vari
ունի
какво
چیز
Audio
profile
liq
##dus
##И
الشخصي
##тся
dest
Milan
Wilson
mentre
##ಿಗೆ
lavoro
hef
Fox
மட்டுமே
Society
tỷ
Они
dove
##vy
გვერდი
pin
##ವಾಗಿದೆ
Lakini
##tz
bada
رئیس
всё
þessum
último
##ža
च्या
##nne
କି
##bles
لیا
doma
cliente
##jąc
certain
##cję
Од
laptop
##ről
amit
Qué
නැත
views
gør
помощью
##tive
געווען
tambahan
chia
1900
Chelsea
ଏହାକୁ
##dra
plans
পারেন
mp4
##нун
NATO
karya
እስከ
бусад
memilih
பெரிய
Detta
abu
téh
وفي
pir
ບໍ່
ខ្លួន
chiar
##ләре
Tam
práce
unaweza
Kurdistanê
проект
##lni
heute
track
disponible
Jekk
habari
چوڭ
##ným
Auch
geven
bawat
países
1964
##פים
भयो
yol
GHz
다양한
případě
באמצעות
buah
Vista
réir
anterior
дело
nid
གསར
kasance
مشکل
acum
menerima
hết
انہیں
##اں
જેમાં
Price
##xe
pala
Pe
គ្នា
tất
##gis
بهترین
soon
##יק
гэдэг
ગયા
bästa
ਲੈ
##ttu
игра
qenë
varit
##ُ
Ikiwa
##ngi
wbr
passer
##ವ
좋은
rhan
Thanks
fydd
таны
služby
بے
пад
metode
maro
vårt
##ნი
Fotografie
transfer
##ovat
Tout
czyli
##ška
אלה
kjer
বাংলাদেশ
Cara
chete
iaitu
dad
tepat
##°
fund
##ရဲ့
ስለ
##eke
کوي
tanggal
##ਦੇ
kabungtoran
gero
సినిమా
tots
##ما
ऐसा
miesto
فوق
هڪ
Area
hafði
Jehovah
gani
استخدام
biyu
##нето
##EN
mapa
aldrig
لائن
##ీ
##ím
##гө
così
нар
##ism
projektu
ahaan
Bonus
jūsų
توسعه
vedere
ചെയ്തു
##field
گھر
viss
homme
পর্যন্ত
тоже
защото
##tay
dawk
quello
iii
oktober
надо
Setelah
##نه
##ଗୁଡିକ
osoby
kiểm
##ๆ
sort
kasama
ONE
گذشته
kedah
années
cinco
всем
após
undir
ତାଙ୍କୁ
joalo
warga
తమ
##áin
yonke
seiner
mbali
turpis
болуы
role
culture
##cje
دوسرے
curso
##ub
hua
mayor
другие
ସମୟରେ
Bible
tub
temas
118
possono
jooksul
##tum
##быз
gadu
бидат
##pun
అతని
κι
##fika
Well
పాటు
despois
کاهش
добра
protein
hōʻike
luz
ruang
αυτά
##ମାନେ
build
tsum
dêr
kreye
Kunden
Já
Prof
биз
yok
কৰাৰ
meet
ready
fikk
गरे
taking
##ол
Mat
kohë
ومن
iai
tuli
lilo
број
олардың
한다
seneng
яке
verde
худро
result
##жа
шинэ
##רה
આપે
ասել
তাঁর
בן
Today
poi
pendant
wszystkich
sino
eble
##ске
kis
дагы
pasta
child
##ката
күн
purchase
био
vile
natin
қажет
agat
מספר
કરશે
##bet
##schen
##ें
##ांची
کیلئے
նրանց
vienas
دار
##부터
nto
forskellige
VII
##ني
bolje
మంచి
kenbe
Type
ematen
##ρα
##라
boste
hægt
dhewe
anything
عبر
Oo
cảnh
Ju
yeem
teman
Cloud
ramai
Kinder
##க்க
bê
mpanao
Webseite
impact
##па
##ଲ
dolore
اعلام
##და
ხოლო
שנים
lake
##20
##ett
fără
Jersey
всеки
114
ගැනීම
##али
##gs
poput
baya
irin
sawa
Մենք
үй
##يد
nesta
hizkuntza
कभी
мемлекеттік
1939
moyo
##king
सामान्य
##ид
mmadụ
səhifə
##ait
mach
meningkatkan
വലിയ
nyaéta
fácil
runt
mạng
vídeo
monga
eraill
cannot
지난
từng
friend
pass
nchi
writing
includes
##owej
vô
hồ
Enter
##nem
nooit
##tica
##ડી
##her
అవసరం
##cher
өдөр
175
jalma
Add
مرکز
त्याला
sign
Copyright
##čné
دریافت
juni
ဦး
während
1966
அனைத்து
кыз
kiwango
gampang
wekî
Nhà
zij
प्रश्न
##ges
hatua
أخرى
##ának
ଅନ୍ୟ
maikaʻi
dulu
đội
amigos
glas
આવ્યો
خوب
にお
мөмкин
##ո
understand
persones
قىلىدۇ
gamay
ibyo
संख्या
ahol
هناك
ім
अर्थ
##ده
daerah
وي
loaʻa
gdzie
jij
إساءة
##ces
Jest
facile
##ère
ஒவ்வொரு
mają
κάνει
##hala
таа
ÑéÑ
તેણે
##ының
obat
##ыя
ভাল
هن
couple
##ง
koristi
Night
miatt
eneo
hộ
Muqdisho
tubig
Entre
తెలిపారు
ćete
juta
plików
tiun
drama
wengine
Use
turun
mục
##zer
##ije
nổi
என்பதை
ব্য
##ivo
всі
miiran
typu
##대
rá
pamusoro
проблеми
estate
##ग
këto
chiếc
двух
##ად
течение
sted
##ному
Corporation
اسی
majú
وقد
##த்திற்கு
ਸਾਰੇ
nim
uygun
atunci
uiga
కాని
Той
ደረጃ
plaats
##AR
sentro
którym
хора
zile
everyone
comprar
Không
##ала
##ید
1918
वो
april
drugim
nuestros
خیلی
estat
dod
##ците
გამო
Егер
kag
projet
##ത്തിൽ
premium
телефон
##lash
golf
##weni
sulle
##ре
бий
vanhu
تبدیل
##amo
enne
Era
moral
gusa
کیونکہ
Part
##liga
##nut
kaca
લાગે
##enda
ਦਿੱਤੀ
batzuk
þér
ගෙන
##mon
rya
صلى
##ած
Delhi
cosúil
turn
123
Cha
maison
οποίο
câu
եղել
weiter
##ብ
ensemble
Meer
ምክንያት
अधिकारी
##tto
бірақ
ئەگەر
podemos
стала
Gran
neque
Αυτό
باشند
máte
ella
##вати
quý
##ина
større
води
billi
должны
fondo
dizze
Laura
એમ
fwa
Marina
جیسے
##શ
##வின்
Nalika
postoji
tulee
দিতে
behov
prípade
sha
##ರೆ
направи
focus
күп
##op
අපේ
Qhov
град
mở
мора
kuona
Porto
varje
Juni
Според
##ана
którzy
ලද
words
खेल
informacije
kò
зэрэг
##ँ
yil
според
beli
මෙය
periode
trả
Bila
1800
गरेर
Vol
escola
Sunday
Earth
meio
áit
یاد
Serie
នាក់
való
города
ние
ਗੱਲ
lưu
membawa
ẹrọ
stay
##или
зөвхөн
nantu
Efter
December
District
Ñë
Thanh
aʻe
##ği
ಮಾಡಲು
awer
miss
রয়েছে
trading
keyin
girl
आएको
किए
viens
należy
रुपमा
ասաց
áp
##port
lloc
##var
idan
ту
aye
sna
hemen
Thank
პირველი
قىلدى
dazu
حساب
##isk
shopping
##ರ್
##야
todėl
kinderen
wata
span
ക്കും
abụọ
rehefa
210
яких
kòmanse
device
##жи
##ət
हूं
Christmas
ବର୍ଷ
histoire
wakhe
##pt
որպես
##enia
zog
tell
कांग्रेस
##isme
जात
hate
PE
verden
lieu
thật
heye
picha
zavatra
πριν
ని
Capital
##each
Zo
##မှု
maji
прави
spoločnosti
##AL
Excel
passar
vitamin
##baar
rite
хатын
pokud
všechny
ସମସ୍ତ
නැහැ
##िया
perfekt
habagatang
budget
ts
toch
119
whether
ስለዚህ
gabe
मुंबई
Joer
مۇمكىن
نرم
november
হলে
kabi
которой
وزارت
مان
Verarbeitung
ონლაინ
जाती
לכם
արդեն
sir
dros
Review
स्थान
passe
امروز
આવ્યું
##ድ
finale
##ente
ceea
rakyat
Total
ਸਕਦੇ
ним
watoto
##ед
##ší
##ری
веб
aso
bahkan
இருந்தது
nacional
tupu
кеше
Thema
esi
##ál
minu
hữu
language
mediante
recent
##ပါတယ်
Mount
##tsi
ಎರಡು
##LA
کہنا
दिल्ली
urte
former
##лся
bantuan
Square
designed
either
булып
Vietnam
سکتا
servicios
prendre
varētu
##ರುವ
His
osobowych
Yehova
##ões
Ihrem
indlela
dhèanamh
mache
aktif
դեպքում
forex
##ഡ്
ඉතා
kwake
##nci
player
स्पष्ट
doch
meira
raws
##pas
evitar
مزید
quasi
Adobe
##uli
रुपये
ਜਾਂਦਾ
шиг
##ල්
svojih
שלה
##ತ
vite
tadi
##лись
oare
সালে
ütles
step
σήμερα
Miller
tomonidan
blant
negeri
ሲሆን
##nze
Marc
मन
##cat
جديد
reviews
##idad
##čku
tyd
கொண்ட
plastik
Stephen
beradi
тое
agama
toliko
lihtsalt
##ника
трэба
নি
Монгол
1962
vele
nuna
שיש
##gel
veldig
Call
Arts
liwat
امکان
Алар
##ің
##ност
самых
околу
аж
Tema
ጥሩ
##ይ
mambo
nji
bekend
clip
மீண்டும்
této
parts
aut
dəfə
Thailand
kabla
Ushbu
samma
choose
iż
ដែរ
fort
##वी
Space
hukum
ਦਿਨ
Depositphotos
eksempel
важно
pelajar
pats
ahora
common
କାରଣ
Харин
##یا
##ського
кг
##аас
ngayo
##ismo
أفضل
zan
1963
እንዲሁም
Brian
terbaru
##هُ
ਕਾਰਨ
Nëse
ऐसे
alia
kuitenkin
کړي
##čki
דרך
tapa
цена
unang
పార్టీ
interesse
କୁ
##ande
Waxaan
Danmark
ask
##dla
पूरा
##த
fiecare
Nuair
apps
##ford
nenpòt
kteří
##ċi
mají
havis
pretože
dice
completa
##сон
mental
μεταξύ
ọjọ
своих
uten
आवश्यकता
පත්
Khmer
While
kaum
città
khoảng
bun
morte
annak
nord
hyvin
údaje
orci
karşı
අවශ්
##ңыз
zeer
gay
feito
બહાર
shu
Sky
થી
terakhir
ਹੋਇਆ
trop
ஆண்டு
hỏi
edin
ihrer
పై
##ском
Miami
다음
নাই
##vati
##50
daim
wszystkie
yangi
Awards
##oka
форма
vien
masani
amalga
##ania
usług
பிறகு
bahay
verði
жалпы
##Н
digitale
##wn
Ова
learning
ਅਸੀਂ
المزيد
ఎస్
ezi
##ować
putih
##sid
سخت
इसलिए
##rka
tienen
hvort
texto
##ský
ஆம்
royalty
avere
##dik
##kia
##વા
كۈنى
##ші
डॉ
coj
ప్రభుత్వం
казино
نور
جی
ką
rreth
aħħar
toán
grund
улсын
mikið
##оо
मेरे
seri
året
waħda
දැන්
Се
Jane
zde
macht
needed
должен
Lewis
##lé
##נג
हामी
Mainland
skladu
ਕਰਨਾ
ئۆز
##নি
없습니다
lt
Russia
ចំនួន
అనే
จาก
όμως
итә
##మైన
okenn
nai
ancak
баш
positive
нешто
қандай
hanyar
ООД
punya
Cena
ні
ortaya
ଅନେକ
augue
khí
Başkanı
Kana
##ууд
##mız
биле
##вање
annet
nunha
##ції
cursus
roll
##hoz
hie
دونوں
Java
nayo
##kse
کھیل
redes
filme
bed
Security
##ී
Gambar
yapılan
trois
líka
Wala
##той
তৈরি
ئېلىپ
bilgi
дахь
தமிழ்
ապա
Theo
January
erabiltzen
група
Αν
ቦታ
gade
amene
stati
areas
MP4
egingo
yanzu
police
##வில்லை
articolo
hivi
неколку
##ņa
RS
فکر
अपना
##stu
भन्दा
mě
सामाजिक
דורך
Form
எனவே
svih
##vala
jog
bab
##כה
ligula
sellest
koutou
iv
માત્ર
diksyonè
stránky
ianao
ઘણા
Sve
بندی
geld
ਦੱਸਿਆ
jamais
mức
उत्पादन
xogħol
danh
VR
વાત
##ంది
cenu
types
titik
Salah
использовать
judi
ତାଙ୍କର
vienu
Thông
français
files
către
Asi
board
##yt
qəbul
thư
shine
ബി
Nick
ගන්න
جديدة
##toj
дээ
taong
Word
##сць
yabo
દરમિયાન
કારણે
fèt
matua
##yin
##ében
section
אלא
##uda
oes
##ያ
হো
steht
##ário
دل
жоғары
##liche
##ೇ
багато
##டி
yourself
policy
##ര
##rati
имаат
delivery
Sea
##нен
Aenean
slike
නෑ
eadar
مصرف
##yar
joj
noite
##ню
##kor
یعنی
Akismet
سنگ
វា
Fai
##য়া
longo
belajar
##डी
121
plek
ਤੌਰ
else
kutoa
pjesë
diz
##ങ്ങളും
pasado
255
takie
menyediakan
##འི
113
smart
##larini
onların
żewġ
ที่
njira
1961
ਜੇ
šis
##oli
ebda
##રી
##dores
hayo
##rá
ко
sinni
качество
లోని
gaz
road
sad
šio
ner
milioni
ਮੈਨੂੰ
Bha
##వ
materiale
бала
##mbi
thuốc
created
cynnwys
chce
kasa
utu
kasih
phép
liserxetê
όχι
жерде
ئىدى
1948
sarili
visto
տարի
Idagdag
##ute
viktig
muid
##lala
deras
Raha
આવ્યા
##વી
təmin
werken
উপর
ختم
Tačiau
Medical
helbidea
ата
אחרי
bocah
ଆରମ୍ଭ
##house
##ских
අවශ්ය
Plaza
##нг
##kých
finestra
laiku
kvalitet
##dda
idee
zambiri
эки
chân
মাধ্যমে
##റ്റ്
##iye
получить
Make
وزير
ໝົດ
verwenden
##çi
пак
тя
cây
området
خط
thoirt
adresu
ཆེན
فعالیت
release
heldur
porte
આપી
üç
changes
Cómo
##सी
Joan
जिल्ला
formas
Samuel
Card
kanila
ያለ
мүмкүн
##ţia
lúc
মানুষ
bildirib
subject
##ា
Fe
Region
puis
Marco
ενός
ում
CC
##mek
frem
##éiert
ହୋଇଛି
SIM
येत
kỹ
Id
##ать
pengguna
bardziej
жер
Davis
බවට
buna
##О
Att
ray
nyiaj
##რი
cinn
budete
wā
##tje
chéile
mean
mohou
magyar
official
ですが
##anga
##sä
jinsi
lehen
lead
cultural
producten
čia
viņu
igjen
ឡើង
##են
sak
Θα
آباد
##る
##ður
Cerro
यांना
##war
වශයෙන්
leve
##тор
##rà
astfel
##US
ശേഷം
vui
##য়ে
yim
bedste
##ove
dimana
qe
##nts
ཚོགས
116
##bank
coming
##tore
шаардлагатай
qal
ندارد
ന്
zake
kaayo
Von
##ར
sola
informace
##kirina
مدت
##ული
خپل
آزاد
яўляецца
various
##KA
dzięki
cambio
loj
vem
##gon
weeks
interest
allan
રહ્યો
DI
زمینه
kemm
único
ຢູ່
##larına
##σα
ретінде
علوم
##zan
##ват
Tôi
##sins
Status
ilu
eks
laut
bejn
otra
muag
তাকে
käyttää
##RE
xwm
elles
ms
celui
যাবে
especially
Tel
##nsa
două
hiểu
pena
vielä
során
овие
kurios
Academy
fashion
np
Award
perjalanan
Olen
նման
gihe
minuti
Bio
darbo
##сі
పెద్ద
nalazi
ahal
AG
takže
אותם
##iko
keadaan
##цыі
щодо
امریکا
##atu
esperienza
Kr
الكامل
þær
Ele
tayo
വരെ
siap
chose
चर्चा
##lim
план
መንገድ
medical
Hồ
भए
ajan
dalawang
کاری
ung
առաջ
ସମୟ
lidt
##lığı
##DA
maja
Oni
##end
ľudí
##tori
ambazo
OEM
Kanggo
##ị
GmbH
lucru
Over
##̀
Осы
පිළිබඳ
berat
ešte
দিকে
Fra
условия
minh
Mir
అన్నారు
através
इतर
aceasta
##дық
după
segja
হাজার
Suite
##ান
varat
##아
abdi
solutions
ھەمدە
онда
##साठी
immagini
##ۍ
жилийн
шудааст
looks
##det
þessa
komputer
ارسال
enweghị
fet
ایسا
सार्वजनिक
usuario
kojoj
තවත්
block
لوگ
adlı
սակայն
ON
مطلب
##У
ಕೆಲವು
nchini
mwy
##ība
هدف
бара
giorni
jeu
दे
ಅದನ್ನು
feadh
perquè
mengalami
wer
grada
tion
ایرانی
எனக்கு
##jski
aukera
شو
lazima
##lise
running
bw
##ţie
##եք
fad
urip
адамдар
##ити
commodo
eli
deireadh
იქნება
όπου
leuwih
##ିତ
نفر
busca
använda
сіз
oyun
sínum
AR
nhìn
eros
எங்கள்
lokasi
पहिलो
جبکہ
bulunan
номер
Material
##kuwa
probleme
fomba
کافی
haut
##fall
sezon
جواب
cheann
touch
tranh
када
नाहीत
chí
ndetse
bastante
##endo
kdy
samen
মা
పని
paske
almost
ಹೊಸ
системы
თქვენს
homes
kry
problemi
##LE
түүний
síðan
것이다
keng
disebut
తిరిగి
kasadpang
ʻōlelo
##وم
Birləşmiş
tea
moj
mener
tohu
собой
सुरक्षा
tijekom
ord
flera
família
ਕਰਦਾ
tinggal
сум
එකක්
nisam
novembre
precisa
dalle
Dam
##zar
nta
మరింత
Þegar
penuh
##ando
bruk
drei
yli
##ବ
فيها
uy
пасля
आरोप
DIY
ling
menyebabkan
juli
لها
Anti
مَا
otras
keni
risus
##ాలను
хэдэн
cut
Kā
bonne
любой
qualidade
fhéadfadh
wol
իմ
##ţii
מען
CV
શકાય
ועוד
fid
での
सरकारले
zao
буюу
бүр
இன்னும்
leave
Ketua
six
##ule
pravi
duas
##ત
terlalu
kyau
leer
počas
Ба
##ણ
दिवस
##ac
dúirt
Milano
##տ
risiko
regular
felis
145
gusta
##lka
##ваць
resultado
dövlət
Channel
##ию
পাৰে
sì
maachen
##eza
##에게
tương
Ihe
##ೂ
##ldi
آج
edə
kënnt
moo
лишь
peso
blitt
domain
кардани
##ву
##uni
Yes
Мөн
comments
wau
attention
yetu
Del
Yog
потрібно
Year
##மும்
زیادی
fotoğraf
##מי
אותה
प्रक्रिया
đời
Він
ball
кое
importantes
Kao
##èl
omkring
مدیریت
youn
asko
##hez
Court
కంటే
vaš
Ata
મળી
деньги
stora
ቀን
allem
##zni
fẹ
livet
جہاں
##eket
##xo
weten
seguro
polisi
##она
gravida
##دي
درصد
ახლა
governo
##rsi
జిల్లా
##ડ
tối
avis
fason
##सँग
árið
lisää
##ând
Autor
anba
##ници
Orange
чрез
අප
Happy
KB
tó
hapo
giả
autem
document
lựa
##gal
sati
videre
individu
хүмүүс
tiến
gọi
حدود
demande
##ುದು
देने
makahiki
##hle
গেছে
μαζί
Ex
apply
vere
व्यवस्था
تیار
czasu
langs
mmiri
cực
whakaaro
##დი
vardır
liten
Nur
giorno
##eda
oficial
niso
خوش
države
vreme
Chan
работу
##دار
འགྱུར
baza
##kirin
Kontakt
vragen
##تر
hạn
ntabwo
abril
unua
##פה
basi
LE
salaku
pataki
##ghị
වල
مجموعة
karta
##വര്
pu
pirang
programme
kein
Edition
##ರಿ
saúde
rätt
mimo
federal
117
##вали
bolsa
सय
simply
उनका
últimos
व्यक्ति
##ない
##കളും
boga
password
##лу
nde
طریق
еді
ადამიანი
ام
bord
व्यक्त
toerana
Από
делать
##cer
##уу
hvernig
##ται
ሁሉም
Leben
следует
##juk
قانداق
yakin
nisl
ध्यान
plats
qilib
njupuk
ie
আপোনাৰ
pendidikan
gặp
engari
##மான
చెందిన
bruker
##ସ୍
##ंना
650
##šo
paket
vend
awa
takes
ly
רוצה
##ಕ್
frente
həm
ren
София
جامعه
Place
tausaga
وقتی
કેવી
rede
pana
##jë
dini
##ček
wielu
njega
##bal
ຄົນ
bố
##dio
taha
पता
##menn
##յանը
chương
producto
dié
igihe
наших
शिक्षा
gift
##ర
sat
Oscar
Cruz
##owego
qarşı
rendah
ngành
каждый
алады
amser
memoria
122
inti
алды
niti
اولین
cor
kişi
##η
##િત
##үү
පසු
contro
##isten
kaut
serve
Toto
##ळ
told
imam
kadhaa
##কা
##rile
##ക
baixo
professor
nami
ÑÖ
carta
##യിലെ
sjá
υπάρχει
бидејќи
Class
ગયો
swoje
##ēja
miejsce
độc
istess
nwa
کامل
хорошо
##یی
##ול
ဖြစ်သည်
zinthu
##Ã
След
totale
Meta
lectus
honum
kondado
бояд
ways
Eva
kio
neem
Classic
##cho
Dubai
Melayu
oz
further
tools
იმის
Sud
thoại
##vimo
ёсць
তখন
pwodwi
bago
neko
##μα
informació
trip
Toronto
construction
ច្រើន
meine
entreprise
##tą
##tatud
1956
##ap
dhá
##нага
Teil
nahimutang
nō
##لي
Roman
شاید
##ingen
była
naszej
##юць
AD
ନିଜ
Weitere
diversi
##vání
Champions
tín
chuig
liga
wanted
våre
##ming
makita
egun
často
##іне
seria
নিয়ে
tortor
Francia
Nel
Audi
ന്ന്
بنجاح
andet
faqat
kerajaan
hospital
##skog
چرا
127
Wann
যখন
menit
##ī
asemenea
##শ
şu
đấu
Dacă
fitness
tren
##ତ
hennar
মতো
である
membeli
waxaan
τόσο
такое
जाएगा
rẻ
proprio
1959
nemen
saam
skriver
роботи
toko
lupa
aliquet
unserem
nola
đầy
っています
možda
pelbagai
Queen
інших
તરફ
acqua
ait
mahal
аль
##mana
მიუხედავად
kos
vận
Ref
тех
plano
ଦିନ
yksi
Apakah
##rade
berikut
üzere
biashara
amount
pagkatapos
darah
الخاص
बनाने
haber
DO
улс
próximo
Скопје
chef
##zne
একজন
jira
घटना
siste
mindig
##ã
samu
mpaka
thotë
Đông
continua
ذات
quite
allerede
ساخت
ilyen
estamos
Roedd
##ниот
emva
الخاصة
CS
Text
3gp
##ासाठी
##റെ
NUM
trying
fond
pò
Duis
додека
olema
grave
нещо
iwwer
manual
##ique
orice
කරනු
Explorer
কম
##ൾ
ನಿಘಂಟು
సమయంలో
galite
Anthony
kou
##eu
macem
ହେବା
পরে
ওই
madwar
inda
##နှင့်
själv
chake
nici
дорад
రోజు
انواع
əlavə
fleste
##щ
Ob
chaidh
això
thar
klas
##шка
altında
رایگان
polis
vërtetë
एउटा
Travel
Samo
boek
କରନ୍ତୁ
produkty
daje
의해
##jot
kualitas
प्रधानमन्त्री
sare
commenting
babae
Khi
ລັບ
rien
aaral
đa
povus
##ец
చేసి
حمایت
प्रहरी
gesê
saját
rámci
ਜਾਣ
بسیاری
Village
きな
skin
Mann
ማለት
जर
reason
bóng
CT
ਵਾਰ
Fire
##ʻana
सकती
XIX
anvan
aming
انقلاب
mutane
Vector
##ី
Bo
ପୂର୍ବରୁ
##īgi
taču
חלק
света
Junior
##ス
##tır
##습니다
thawj
mestu
Pēc
mani
kol
giữ
##ෙ
amp
ओर
sosyal
energi
вели
##py
टीम
орон
##lərə
мае
domin
##رة
granda
مقابل
loogu
##خ
تغییر
যায়
شبکه
##թ
hỗ
EL
##ání
lacus
ఆఫ్
بحث
kaks
##ados
##يم
باشید
byose
##িং
Preis
piemēram
tohto
##रा
kit
Water
मेरो
teng
egwu
force
##ydd
Dari
mesma
Pop
akun
đúng
##că
empa
стали
त्याच्या
ndërsa
заедно
gồm
Produkt
saib
##까지
اشاره
urna
1958
pretty
chuyện
били
Thành
NFL
##oon
הייתה
adam
ciudad
Verwendung
diversos
ihren
эми
##lary
financial
##úil
formula
##ain
quen
dirección
Machine
buri
kube
##okat
##යා
позволяет
Act
##vne
dibuat
única
effet
الاعلان
સામે
region
##াই
iste
éves
##вы
host
dienas
1947
торган
##ues
kojem
дзе
сразу
საუკეთესო
Singh
##ത്തെ
ମୋ
dich
abo
Кыргыз
kereta
परिणाम
##raa
між
Fashion
Latin
اقتصادی
वर
kesehatan
280
terms
##dne
kiedy
Với
##дай
##քի
##fanya
האָבן
প্রতি
கூட
برابر
azo
دهند
đảm
##siya
ਤਰ੍ਹਾਂ
550
##ען
aide
##ole
muncul
vezes
kuhusu
##상
probably
piece
ভালো
phù
ду
##्ने
##бек
##되어
चुनाव
ćemo
wek
toa
##ното
એસ
kodea
Jason
Tech
##ern
Firma
మీకు
pad
##ால்
XXX
kemi
teljes
Kelly
welche
በፊት
storia
##AS
feta
Ну
Development
Նա
gukora
bak
וועט
3d
buong
Aug
Bus
##pad
##ности
Jun
politique
भन्दै
arah
erg
##dig
możesz
ṣugbọn
##zeko
novos
ħin
ЗША
නොවේ
##જ
##lela
मैंने
նախագահ
##list
ABC
##tii
چین
##ม
bado
feature
##get
ସେମାନଙ୍କ
mix
बढी
SQL
pelanggan
genyen
effect
нест
##rdi
bzw
beag
Andriamanitra
Así
Karena
##να
гына
maaari
შეგიძლიათ
vraag
sizin
kepala
bali
उनी
medium
##sat
nový
seseorang
ikun
personale
rund
ambapo
##ering
হয়ে
Michigan
কেউ
বড়
كنت
##τος
ना
Lisa
чего
sebelah
##skom
спорт
##mal
##stva
CPU
animal
दूर
tela
bunga
Andrea
Ett
mem
fale
Kuala
pwoblèm
Kate
safe
ਹਰ
ಕೆಲಸ
##ларга
helst
tatu
образом
Follow
tête
semper
##రు
posebno
cé
laman
Ave
متعلق
##cas
##تى
उपचार
katon
##zat
lavi
khả
dünya
Merci
yomwe
Leo
##ଲ୍
fotoana
sapien
##rk
Wannan
Ga
nostre
jį
izi
தொடர்ந்து
##ंच्या
ದಿನ
виде
ABS
ikaw
rights
##ño
tee
##นี้
жизнь
gari
هفته
nors
அவள்
서비스
dixo
Người
quindi
beş
expérience
ତେଣୁ
problems
mjesto
Она
Mulungu
احمد
oferta
Jordan
msingi
innen
##પ
##umi
##نی
tanda
late
دغه
هزینه
største
افغان
Sydney
##stas
civil
mất
Однако
presenta
murid
ਤੁਹਾਡੇ
thug
permezz
Ag
##sya
sabab
diye
ler
صور
144
zbekiston
volutpat
असल्याचे
навіть
Datum
zł
dà
usuarios
پەقەت
হয়েছে
пока
##IA
había
Hand
##い
تحقیق
đoàn
پولیس
##て
located
Women
##ਤਾ
کوشش
##ларды
кезінде
کبھی
usoro
##tre
જ્યાં
Saat
možnost
background
produce
такие
##ह
Energy
##డి
seal
вопрос
davam
יהיה
kaibigan
##ans
síos
edu
dhau
##ట్లు
hor
biasanya
4K
בבית
качестве
همان
sabe
został
רבים
##ود
እኔ
daxil
ದೊಡ್ಡ
Board
Nintendo
اہم
dello
personne
tehdä
pusat
##ється
kommt
प्रयत्न
probleem
Semua
јер
##ини
रंग
Eng
удаа
fada
વર્ષ
xử
satria
hotels
001
Georgia
vide
vseh
לקבל
VIII
naszych
panse
##30
Русия
filmu
##лап
sk
ажил
bagong
Læs
##ská
להם
124
ÑÉÑ
której
##нде
ancu
તેમણે
##ว่า
yuqori
##rina
aš
##oo
ભાગ
minyak
wszystko
##ুল
##τη
trưởng
cancer
places
##ники
своего
Istati
жа
##ување
སྔོན
ضمن
agent
Morgan
ceux
Ще
fini
ка
bruke
دانش
دوم
después
mahu
nincs
pribadi
batu
ہمیں
forward
##ntu
Lees
afaka
aa
Immagine
kēlā
nej
нэгэн
жена
percent
Special
Бирок
casi
Notre
geval
belakang
dikare
##თა
ciò
Duke
ով
systém
vizuri
yawa
1957
நிலையில்
Version
Education
ନେଇ
puntos
Gwasanaeth
##dzi
bruge
berbeda
##दार
üzerine
lleoliad
1942
мөн
rộng
##يت
##ès
android
सरकारी
temporada
laba
རང
kegiatan
##ག
mark
##ବା
организации
Police
ਦੌਰਾਨ
Tanzania
żmien
דע
summer
Bakı
Alt
වැඩ
##ض
olsun
wai
##정
green
join
sepse
ọkan
kilka
dvs
##kah
##ával
सांगितले
stories
##ија
uru
الذين
##tate
maa
##rek
##ಾಗ
каже
كم
##ਦੀ
Computer
##тік
NEW
Nike
стане
přes
yar
machin
εδώ
দ্বারা
आपल्याला
glad
grandi
XP
gee
فيه
firm
nû
العامة
bibe
arcu
ਮੰਤਰੀ
egestas
ukuran
mikä
##요
nato
ಇದೆ
##ğa
indirizzo
##lie
حالت
cad
Hii
difícil
табылады
168
først
কারণ
zařízení
MD
ня
pizza
##ர
Posted
mwisho
##প
além
mwyn
##ება
##േ
الأول
Miguel
robot
مکمل
nguồn
Rusia
Desde
wazi
wit
šī
എന്നാൽ
lartë
μην
zip
ensure
жатат
Ball
biểu
দেশের
Bez
##gun
maximum
stronie
Ary
##जी
puer
ішінде
अभी
baita
##Б
mian
kabel
xyoo
vody
kehidupan
үлкен
başka
internacional
##ย
allow
କାର୍ଯ୍ୟ
lura
ਲੋਕ
##лна
##jnë
حسن
laki
nọ
##치
siri
medida
सदस्य
Cina
کسب
Ces
isn
khẩu
nghĩa
blevet
Aby
actividades
mande
Στο
Mal
huyo
σχετικά
одна
біз
Kummissjoni
##ਦ
##נט
speed
três
сөз
እንዴት
Тиймээс
мало
আরও
##ški
خانواده
ଗୋଟିଏ
Srbije
πάνω
يۇقىرى
많이
Að
אפשר
figura
huduma
##ላ
minst
picture
wide
näiteks
kanske
servicio
##back
تكون
šajā
कार्यालय
ngadto
کمی
Tā
##ischen
zamanı
ഡി
sollte
Šis
##isch
##24
##ന
##legt
upon
##த்த
##anie
##ike
education
bidang
##ningen
stedet
వంటి
##pis
mente
Chính
##њу
այսօր
dim
khoản
##taa
данни
tso
isegi
път
потому
حَدَّثَنَا
##よ
aw
tổng
zawsze
няколко
کرے
ಈಗ
sidoo
உள்ளன
Department
kemur
##ਈ
num
##தான்
prostor
matter
##ිය
stadig
##ef
έως
##zon
suke
واضح
одной
Original
vinna
sentido
route
اسم
lagt
##ācijas
puedes
fhios
elkaar
NASA
Story
کیفیت
Aontaithe
पूरी
BA
laser
systems
##zko
trend
longer
##цу
этих
##tem
ഡ്
rapò
roman
vise
PMC
##णे
servizi
##tele
fiind
##ws
##لارنى
אדם
aceste
Newsletter
chcete
perempuan
avo
nivo
Dövlət
amazing
kuwi
عمومی
Emma
التبليغ
groupe
Leit
##нар
hakuna
settembre
gum
File
potem
vaak
Gusti
história
##urile
madhe
гадоў
ویژه
Canon
درخواست
##િ
شرایط
जास्त
##dis
boýunça
kunde
Nhật
outside
##ité
pelos
طول
schnell
nüüd
алган
##ary
protože
Durante
klein
oku
##ង
dhuwur
artıq
##bra
තමයි
чым
жөнүндө
ikki
bolesti
currently
##ého
لازم
kvar
Prince
tikanga
області
rhoi
##ndən
miles
olunur
mwingine
tool
sẻ
##ម
industria
##sme
אויך
ಅದರ
films
Wars
noin
ndaj
##овой
##ρ
часть
##ीय
Law
##לי
cerita
1914
behind
ខែ
maanta
##сына
mieux
शहर
دینے
##اس
##რების
આવશે
nuwe
kion
##lerde
##ပဲ
kaupapa
bättre
tanan
келеді
luật
उक्त
idag
మొత్తం
december
həyata
batera
##چ
##με
##une
మొదటి
ніж
येथील
practice
între
kuras
खर्च
פי
mort
البته
saw
Đức
تور
현재
Menteri
##ĵo
topic
પસંદ
بند
1943
##nė
Civil
रूपमा
СССР
Arsenal
bò
Two
German
segala
Justin
අඩු
tahan
Polsce
informacje
beide
##sar
Allen
kupitia
เมื่อ
##af
filter
imati
срок
Waxaa
mettre
unik
ndiye
быстро
amelyet
awak
kasta
について
आई
meeste
миллион
##ün
##το
##ڪ
دون
анда
##ური
etti
budou
questi
azonban
مېنىڭ
##ก
دېدى
mjesta
##మ్
បើ
##oko
##အတွက်
Jangan
##nal
တွေ
ging
érdekében
Maxamed
mafi
##전
##ଣ
zboží
rapide
button
semi
അവരുടെ
##inin
ndryshme
excellent
tok
tidur
saor
ໃໝ່
kuya
digunakake
материал
dục
##wie
##선
ayuu
هاي
tiks
2500
tugas
treatment
Brexit
centru
Iku
Info
##ტი
##lıq
ζωή
stað
##شن
குறித்து
krav
مدينة
##ων
эч
kiujn
manager
dasar
sesión
Telefon
siin
doktor
আবার
Inter
imate
مقاله
período
Problem
##inni
Тоа
knowledge
altid
henne
منتشر
##வில்
Sara
timer
friendly
##bas
ġdid
##වක්
নিজের
##िन
ആര്
##лау
તમામ
گرفت
रहेका
Što
Halloween
Thai
kontroll
##ála
Kei
##̣
##ፍ
enfòmasyon
holde
tão
ix
IBM
ຈາກ
science
Colorado
telo
प्रवेश
भूमिका
MP
##කින්
typ
vorm
Iech
iespējams
vulputate
мекунанд
mbeadh
Force
છતાં
mira
##لىقىنى
coś
bhaint
edilir
responsable
சிறந்த
##ım
wahine
пример
بودند
cilat
легко
126
##ဟာ
үү
санал
quae
Core
ഞാന്
ui
نى
munhu
doe
عالية
علیه
сегодня
lingkungan
artigo
##imit
Agosto
##ல
##jä
nhw
lamun
forbindelse
Anderson
FA
Guide
möglich
sukses
received
이러한
##לים
lewe
אים
1946
iemand
edilen
වෙත
Update
maj
built
néhány
Guru
Bost
##ମ
155
hene
heller
perfil
written
모두
nothing
bagus
hili
##niz
pic
##մ
naka
dieną
lage
utiliser
dikarin
ເຈົ້າ
snin
partido
lawm
lớp
کرتی
ELEMENTARY
lüğət
nna
ամեն
quia
dawa
جدا
མཚོ
คน
interno
ചില
oggi
choix
бирок
motho
योग्य
##rti
dis
достаточно
айтып
##ടി
moc
ਕੀਤੇ
taki
##kk
თავის
betul
mellor
ເກມອອນໄລນ໌
serviços
classe
cinta
कंपनी
##uro
ünvan
thai
legge
##ري
മാത്രം
дела
yekê
teacht
165
bijvoorbeeld
ember
Bali
Firefox
nanti
##တာ
живота
pública
يمكنك
##xi
sína
mesa
පෙර
Alice
Бірақ
faucibus
bibendum
श्री
Fragen
Europos
өөрийн
에서
##vých
директор
sake
write
صدر
txiv
##ог
আজ
XL
कैसे
Тэр
मग
##oje
چاہئے
всичко
stage
احساس
ਹੋਈ
##ங்களில்
##ngen
##ków
აქ
##board
##عة
lager
hoʻi
май
seinen
Then
##ե
kailangan
پاسخ
##dim
Director
rawa
##bona
Player
café
तेव्हा
þessi
ọtụtụ
##kih
enviar
срещу
Tan
лице
êtes
nosa
بْنُ
पाणी
რათა
peab
entrega
tudalen
פעם
kdo
société
hennes
famille
BiH
elektrik
weyn
mellett
చిన్న
mít
##ĝas
admin
bland
Metro
хүртэл
prawo
varios
tohoto
##ksen
például
inside
તેમ
##యం
additional
zituen
مثال
##bia
##ћ
kasutada
##aire
đạt
нив
Council
Бид
##чных
सहयोग
căn
കൊണ്ട്
dala
kwenda
қатар
propose
kawai
système
proposta
फोन
කරන්නේ
wereld
priser
deixar
auala
đá
obras
Puntland
fungsi
behandling
vist
##თან
स्वास्थ्य
comentarios
দে
ປີ
všech
བྱས
opera
Palace
sports
mening
##tri
zer
##liği
Enviar
##ļu
julle
adtong
Uz
беру
laatste
مالی
jin
இல்
grafik
##tou
menang
매우
break
##vos
гэх
tieto
Saudi
Ajo
ntxiv
zonse
Haus
Kaip
söz
ava
bí
##ዎ
sagittis
hainbat
Unol
##ból
differenti
turut
##ság
wada
round
ipo
##డు
muita
Partner
සෑම
xeito
yılında
Также
siswa
आधार
##šta
##rako
vàng
México
shirt
boy
rele
##غ
##int
##tit
என்றும்
dvije
mooi
նրանք
Bidh
detail
imbere
internationale
##ులు
simili
bebas
др
unos
jedoch
sebenarnya
hotell
cosas
chung
##டன்
Daleithiau
##ਿੰਗ
##یت
mål
meus
##ந்த
ಕೆ
Country
Bắc
काफी
iloa
gin
##այի
fiú
telefonu
##ോ
purus
##מת
ciki
ayeuna
её
##лах
##ث
nossos
##тин
hoc
pouvoir
olivat
چون
Fun
reduce
##cı
преку
lille
Back
mhaith
EP
cal
##ји
παιδιά
líne
hatiye
hair
президент
##რის
tedy
っている
1949
áfram
krijgen
beharko
Feb
Need
asli
TI
maupun
പാര്
##ED
denen
##ця
##RO
kant
anyone
অন্য
María
lako
سرمایه
ọdun
mať
##dni
hloov
dik
yoga
нэр
vintage
260
Camp
##ല
##uo
##제
possível
##well
1919
बस
ٿو
いた
ещё
quel
foron
femme
kugira
nyata
dab
Gli
materials
1917
papan
քան
への
луѓе
kuliko
ज्यादा
tiện
speciale
function
naging
Чтобы
Rosa
સારી
##ន
##сында
voivat
relevant
##ового
dành
Girl
taħt
hưởng
아니라
Germany
ấy
цей
ནི
lis
которого
skills
uporabo
eftersom
volgens
કર્યા
그의
##ே
beta
zêde
పూర్తి
Alan
ଥିଲେ
##aithe
moito
ditë
##انه
##sho
ansin
##ум
mwana
gjin
Terra
കഴിഞ്ഞ
Kodi
atao
Па
##nego
ছিলেন
Mars
olmayan
decât
घोषणा
bidh
ricerca
Stadt
##ió
129
めて
##ків
Unit
शकते
میان
novas
Metal
сайхан
πρώτη
μπορούν
hr
jiġi
benda
##zea
فراہم
සහිත
Tổng
quale
দু
##ои
Arena
មនុស្ស
nawo
gamle
میری
spa
өндөр
ühe
groep
ზე
trabaho
ಕೇವಲ
warm
হল
དུས
модели
Xiaomi
kidogo
kokoa
einn
wilt
herë
данных
არსებობს
paraan
rupa
যি
SUV
PayPal
##ony
ရဲ့
zamani
##tni
kto
Michel
igual
אחרים
тысяч
име
Kuid
Stone
132
nationale
Off
даст
List
dnia
Bekijk
February
passa
mbaya
shared
manao
صنعت
Solo
umur
ozi
lze
మీద
svaki
ஆர்
веќе
حوزه
деді
Magic
asked
வேலை
előtt
vim
sotto
deen
генә
gegn
адзін
связи
පමණක්
##ott
Jeff
##рат
onwe
digitu
##ंनी
sound
tilbage
صفحه
millones
##nus
തന്റെ
##tif
байхгүй
असतात
##inga
hd
없는
ಹೆಚ್ಚಿನ
বিশেষ
ihi
hiahia
##AT
gäller
##ந்து
pagar
стороны
ništa
Kč
ից
équipe
bintang
இப்போது
આગળ
રમત
merasa
Local
Carl
choice
अच्छा
##цию
##nso
##ვი
ике
కాబట్టి
virtual
lid
higit
mohli
tata
database
प्रतिशत
##iki
ngoe
horiek
##لو
strategi
##לה
waahanga
##ार
ប៉ុន្តែ
##ගෙන
ibintu
lekòl
##ವರು
##тик
სანამ
Francis
enemmän
ovdje
##anda
zullen
sabiex
nani
1955
##하면
##тық
سبب
dernier
##ー
át
Indien
כולל
Columbia
##ava
##tiv
likely
Ky
Est
budaya
què
aq
##शी
برگزار
temos
issa
često
##zed
RSS
##yada
জন
willen
момента
Juli
naik
Arthur
visus
တယ်
Boy
operasi
banyere
участие
imagens
TL
bilik
Way
ро
addition
zaka
عليها
##rja
només
दिले
suba
##τική
rov
וגם
yüksək
lao
svim
Produkte
tinimbang
ajn
##ych
deň
eĉ
SS
##ες
тако
njegov
kosa
##पछि
قسمت
##led
बाहर
naha
##ച്ച
##eb
welke
1600
drwy
225
daily
##ப்படும்
vannak
でした
परिवार
##туу
AA
hefði
##ությամբ
Tus
tamen
njengoba
##istä
අය
restoran
такі
poʻe
okwu
270
ধরে
##ე
rambut
տարբեր
ಸಹ
حسین
##lijk
ilmu
byly
veliki
tristique
булырга
verdi
cyfeiriad
දින
cuối
sollicitudin
spot
ત્રણ
çi
ത്തി
Што
1954
cila
vian
sơ
होणार
طالبانو
enligt
យក
դեմ
වගේ
مقام
leading
origine
donna
sehen
nap
##fin
grunn
ĉiu
##ակ
bia
##ட
##tak
hemû
cases
timu
انتخابات
SI
mol
##רים
patients
musi
phim
kaksi
tia
##fy
Ok
ይህም
يجب
වලින්
Modern
akhirnya
##க்கும்
수있는
asal
Бо
besser
niba
نمایش
ны
የሆነ
tara
Parti
marzo
mahali
смо
Tuy
어떤
seis
indawo
tilbake
##ail
سوال
##еп
Have
cuma
cât
Maka
##în
τώρα
രണ്ട്
Ndị
quella
ვერ
müəyyən
##lichen
Avec
##sing
Vaše
күні
kurš
באתר
lấy
Läs
കൂടുതൽ
##ус
yếu
##യം
especialmente
تفاصيل
teka
BE
qualità
##ىغا
##бы
Dhe
ĉu
wäert
minna
බවයි
sebelumnya
ඒවා
multiple
##들
Ulasan
indi
segera
##ій
ሁለት
objetivo
ସେମାନଙ୍କର
хүний
Ivan
EUA
Alam
చేస్తుంది
található
channel
##gne
aastat
తక్కువ
vente
##umu
##кою
Jums
عمران
ҳар
نقش
paso
##ül
leva
##्ट
ಜನರು
##pin
வந்து
##ız
fen
##cych
чухал
##ತೆ
##smo
commercial
station
હશે
महत्वपूर्ण
rum
kalawan
Wanneer
dej
لاءِ
жил
lepas
##taka
ulo
##ءَ
gott
loss
منبع
Те
Dark
##ciu
мира
msgstr
mimi
podatke
##toa
##eer
1938
ihu
hecho
##eno
blue
vifaa
Report
అనేక
všetkých
##ို
wakho
какой
##ojnë
θέση
քաղաքական
label
بتایا
##any
Karl
##osi
تین
Когда
##ік
letter
Kama
වෙනස්
##යන්
ಉತ್ತಮ
communication
##menti
mondta
Proin
enter
mak
සඳහන්
rather
ĉirkaŭ
després
മാര്
muli
estes
годзе
cita
հայ
таким
mond
možnosti
கூறினார்
malesuada
አለበት
pulsuz
Holiday
しかし
unser
claro
bedrijf
fólk
محل
##מו
дахин
информацию
tweede
reste
አሁን
elk
যেন
##్లో
פשוט
שהם
член
##GA
кирәк
posao
потом
##aid
Cuba
thất
ਕਈ
သူ
stelle
Arab
إلا
##ё
##진
Cafe
ven
اي
##tka
صَلَّى
мають
தலைவர்
Exchange
kounye
κάτι
Fast
##ав
Jennifer
Tot
bûn
##bla
אתם
במקום
##구
viện
##ʻia
pote
ਦੋ
phạm
فرد
بودن
կա
##لارنىڭ
##alo
użu
യു
જણાવ્યું
visual
mfano
mogao
raya
heidän
diet
ന്ന
aliquam
api
prava
тебе
episode
##यों
کردیا
demi
cü
विविध
tưởng
txais
volna
samun
servizio
besoin
liya
gadījumā
##லை
истифода
diberikan
לה
windows
asupra
Details
##funa
##ლის
shida
مجموعه
μέσω
andro
फक्त
euismod
минем
ამის
Harga
##يه
##nat
##τικό
pain
gửi
bahagi
Zato
Negara
budú
wêze
mkubwa
##bit
ende
##dum
nek
meeting
calidad
Chúng
дана
Tetapi
percaya
Silver
##koa
dictionary
такого
##ním
الرئيس
##rra
পি
правило
surat
Ahmad
tải
bidez
##тарды
गर्दा
berjalan
εικόνες
maana
berdasarkan
suíomh
##டு
grado
Victor
син
khỏe
gamit
##لەرنى
##קה
Hei
##jai
##bin
dhan
آلة
تصویر
Dio
##air
sólo
##шки
कुमार
Baba
шүү
Jon
##ир
ចូល
אמר
##ప్
rõ
اختیار
informacija
##mbe
##kon
##하며
കാരണം
dol
duerch
##lje
vaja
Nulla
AK
looga
secondo
газрын
gadiem
Stop
још
kurā
Latvijā
volas
дан
kiri
senior
##వి
atoa
nữa
##කි
peringkat
kunder
ਹੁੰਦਾ
wonke
formation
cell
biển
ଭାବେ
gheall
Clinton
bakarrik
Adresse
Sing
Roger
death
חיים
nuduhake
дори
రాష్ట్ర
yose
lv
geben
שנה
disponibles
nghị
adı
bobl
aħjar
feela
##sie
Στην
stranica
potential
neach
іс
##хан
hech
küçük
##tev
ийм
Iye
hampir
ਵੱਧ
##èt
neej
میلیون
##gem
##tiin
kredit
jól
ಇಲ್ಲ
लागू
áo
عدالت
rose
Ronaldo
Charlie
Khan
Artikolu
ntej
sinu
houden
Chủ
né
pen
kuita
યોગ્ય
mencapai
svojo
##íonn
មើល
applications
##ської
במהלך
bomo
Unrelesed
##loj
agua
සිටින
clean
тип
##ሩ
하고
aujourd
ఇక్కడ
gert
alati
مگر
grâce
Ovaj
terme
জানান
##gat
sinabi
kokku
процес
Sul
1953
##tid
sveta
դուրս
tswv
siger
Nid
agenda
қызмет
lig
ຫຼື
dobrze
sân
پرداخت
lim
उन
##ದಿಂದ
されます
нават
которое
##రి
##cijos
કરતાં
pravo
tenir
أيضا
Moore
##dag
##jam
povedal
pul
bese
Nigeria
талап
Dies
dưỡng
##λα
##ost
သိရသည်
seotud
менее
মানুষের
olar
bide
වලට
இதில்
yoyote
oplysninger
Systems
##تها
redu
##टी
kwaliteit
bera
مل
Jis
হলো
quatre
بیماری
struktur
água
##ät
byo
occasion
Taip
datum
үг
ακόμα
நல்ல
यहाँ
quali
ਘਰ
Disse
core
اپنا
оно
տալիս
oju
##چە
bhíonn
ion
свет
##and
gave
##үн
##のは
##ým
Москва
tecnologia
Logo
##ík
jaren
reklam
Who
denn
ఉన్నారు
որի
Molimo
ਭਾਰਤ
login
rang
ikinci
இருக்க
opportunity
##лась
pc
cazul
ପ୍ରଥମ
hansı
ହୋଇଥିବା
tard
##Е
അവർ
##rem
umsebenzi
altyd
кого
යන්න
luận
hanem
Sit
trade
меѓу
hiç
##లలో
archivo
درست
ବହୁତ
venda
##мы
গত
amigo
විශාල
ఆన్లైన్
however
F1
могуць
متن
##nder
Thái
ọrọ
peale
већ
جهانی
unga
पुन्हा
##нь
ਲਿਆ
минути
##រ
થયો
court
തുടര്
समाज
vero
##ök
##ලා
аласыз
ಐದು
##çı
morning
inch
jaringan
leng
пари
lasa
Barat
វិញ
bangsa
##aro
##čný
##nca
waarin
ಸೇವೆ
liegt
адрес
cari
vehicle
محصول
Jay
tomar
##larında
##tai
kalebu
والا
dieta
##kti
Malta
##ණ
itong
##તી
полностью
Xa
życia
гэдгийг
Arizona
cia
kategori
Điều
usab
neçə
ayo
اقدام
ABD
milih
другой
feedback
ít
salon
müxtəlif
àÉå
だと
સેવા
undang
Saturday
##ंची
Agora
fór
বলা
negative
बना
utenti
active
exterior
kare
##ските
ystod
нашей
Fernando
##іць
Nije
білім
##τικά
##wen
##ію
usually
##isia
mı
lees
enpòtan
قدرت
Run
Dawn
##rada
holl
FIFA
rinne
inta
enorme
vielen
معرفی
##ére
##تىكى
ರೂ
hizmet
આજે
ਇਸੇ
pupọ
राजनीतिक
بڑی
yordam
ඔහුගේ
##ას
التالي
ky
##ální
poʻo
يىل
1936
4G
eye
##ด
##edd
ինձ
əsas
sterk
طريق
femmes
Room
найти
рамках
##head
riamh
vieta
Venezuela
alguna
##ेर
##بة
Selle
nima
možno
Dave
hoạch
Ён
Nei
weight
tonë
semasa
celo
وهي
yeej
কারণে
halaman
viņi
neo
anois
دوائر
bruger
AdWords
##aidh
беа
гээд
resto
তাৰ
Clique
Liên
iomlán
riêng
agbara
133
planta
spre
##부
kontraŭ
પહેલા
projeto
Double
koom
láthair
isikhathi
##ლები
##히
kartą
ثابت
مشاهده
இந்திய
normale
hãy
fitur
orthu
системи
យ៉ាង
Vestibulum
arall
daca
אף
គាត់
rezultat
भनेर
resultat
##ڻ
##פי
मामले
systému
stel
Україні
cuideachd
જોવા
##ክ
vede
lekker
কী
ಕಡಿಮೆ
bajo
ahua
ай
حاضر
##ели
##үүд
Bagi
Beauty
Бог
Bridge
млрд
जिसमें
avut
праз
finner
Vás
сами
закон
##נת
კარგი
자신의
##ør
##လို့
ÑÄÑz
##јќи
শুধু
きます
unor
Hotell
meest
prices
třeba
kopā
اساس
##zana
Այդ
içerisinde
Marvel
γιατί
τρόπο
Sèvis
nikdy
##tio
##нии
Skype
ўжо
ਇਨ੍ਹਾਂ
Fir
Ils
mbola
Aber
kab
Bản
bato
##owania
нашите
मैले
mune
##တွေကို
အတွက်
Prix
precum
আমাৰ
ding
Abdul
##day
##ներին
Imam
iştirak
Oleh
ajili
آر
できる
IX
##інің
iPod
لري
দিয়ে
##oro
##െ
لـ
##igt
ખાસ
воды
##tı
મોટા
விட
ubu
ప్రధాన
##ດ
eg
roi
sikre
ondoren
accès
сияқты
tempus
અહીં
одним
##ਿਆਂ
назар
itse
mümkün
dakika
केवळ
نۇرغۇن
zeker
##takse
##cké
NE
##छ
യി
우리
gái
gebied
طلب
દૂર
зарим
Поэтому
PLURAL
власти
##టర్
होईल
##cal
сентября
adrès
##ಲು
##ंग
Anak
ddim
##مۇ
미국
##čí
jkunu
Bell
grupos
екен
አዲስ
بْنِ
cadre
Ön
##ئے
##لی
ទទួល
رسول
klart
нов
cura
nič
tokony
yma
##ရေး
estou
מקום
আরো
##tea
Walter
måde
pasangan
trouver
càng
kesan
kayo
Mehr
##nsi
одоо
informasjon
بـ
فيديو
vale
дітей
enkele
##area
མེད
しく
menemukan
bhaineann
بڑے
પાંચ
##ikan
ልዩ
Lodge
dagoen
khoa
UTC
קסנומקס
setting
لیگ
About
##ries
Jonathan
wèb
##ias
lidhje
belle
##inis
##ħ
entry
##bre
##ಣ
кино
woman
divê
xin
бесплатно
Ultra
laporan
vùng
başqa
orqali
faoin
тохиолдолд
lakukan
##jeni
##aus
eji
artist
hardware
tipos
iza
proto
##arna
mafuta
विषय
hvilket
artista
mangsa
mchezo
اصل
notamment
Yahoo
aega
dlo
گفته
baze
têm
Hoa
zodat
##tè
seems
Kids
wisata
##ಡಿ
beri
fyrsta
تصاویر
##В
timpul
petite
##ník
##igen
Để
جمله
ઉપર
ዓመት
turli
pomoc
drop
##time
मंत्री
##נית
higher
jota
Support
musical
##kos
Houston
sijhawm
руу
kode
Beste
yeye
зараз
##rel
చేయడం
купить
##ур
##tina
tashqari
ಕೂಡ
hour
posuere
posisi
disk
simples
cyn
stran
байдал
विश्वास
##werk
zero
మూడు
Opera
geeft
kisha
##റി
##تي
особено
rona
##erde
seguridad
tentu
அதிக
වෙනත්
insurance
136
Summer
##ungen
football
Human
semaine
ova
##കളുടെ
lihat
komma
यस्तो
directly
jawab
1952
gives
Andy
##ობის
respect
मदद
tertentu
ọnụ
Fil
सी
principalmente
प्रति
##hom
деле
φορά
እነዚህ
ያለውን
Sem
##لىرىنى
kondisi
χρήση
##uga
Key
laika
modu
madh
defnyddio
ይሆናል
laoreet
lekin
##ër
select
sécurité
uban
isih
skall
##nız
AL
helpen
projects
təqdim
spolu
ໄປ
bertan
1937
versi
##sinin
##ራ
સી
datu
##tig
mulig
ખરેખર
Tokyo
##ില്ല
##teen
qof
sektor
##edi
הן
##yang
ضروری
Azərbaycanın
Օգտվողի
болатын
Mali
##ھ
concept
##ture
##DE
имат
सूचना
வருகிறது
##sion
czasie
gram
##ır
Hún
##јте
ating
##ется
documents
Cook
##ʻi
ପର୍ଯ୍ୟନ୍ତ
engine
اعلان
kalian
talent
xil
##ial
##lwe
były
felt
хэрхэн
##oy
სკოლის
##pat
aktiv
сябе
ಕನ್ನಡ
тууралуу
trata
##ಲ್ಲ
##ила
installation
kahle
Агар
byinshi
Continue
##தாக
Monday
galuega
illetve
vostra
Ikke
новых
él
industrial
දක්වා
కాంగ్రెస్
FEMALE
তথ্য
Booking
Week
iyadoo
ଆମର
##ovať
souvent
##ær
ukuya
##ские
##ዎችን
Holland
تشکیل
ኣብ
lähellä
zdarma
##ئ
##ação
करती
##rom
pano
feem
hizi
##gos
Mama
Oxford
safety
vòng
هنا
##med
##аи
ħaġa
ευρώ
ME
kalayan
Hierdie
##ladi
нашем
sábado
dau
##kka
dólares
##sjon
بك
##ಲ
included
azken
рече
Après
Mon
gennem
Aquest
tindakan
سیاست
Idan
яңа
131
ды
##ാണ്
сондай
solid
##ihin
になる
جگہ
##tika
ysgol
അവര്
ulang
સંપૂર્ણ
condition
185
människor
þarf
privat
membres
ainm
həmin
קיין
तब
##uu
دفاع
lost
oh
enkel
วัน
făcut
şəkildə
##bh
ничего
балалар
होगी
string
FDA
மூன்று
bazı
##ांचा
migliore
berri
الوقت
##нка
svar
മുന്
menawarkan
##zenie
activities
##лю
uses
pasa
große
Cape
slučaju
bilərsiniz
PRO
increase
Най
##ən
dapibus
нового
gaduh
##ис
môi
týchto
certo
користи
town
Vis
imajo
##फ
college
Zdjęcie
tāpēc
Mes
##dit
مدل
जहां
##ན
noj
محصولات
santé
##ори
Mode
lar
ferhenga
sh
ڪرڻ
इससे
walk
Ancak
چي
igba
menor
xyuas
##itat
##ில்
##ill
##ments
Cu
##vit
fri
राम्रो
DR
##פות
тул
Votre
حقیقت
ക്കു
pamilya
##ୟ
sawijining
મદદ
Jacob
##TO
biedt
##iso
jina
gracias
esou
شدند
keputusan
##rado
ntle
dil
தங்கள்
##bang
Entertainment
hang
arbejde
komið
luctus
ቀለም
nélkül
દિવસ
ඇය
shule
Gabriel
Mascus
201
できます
interessante
Final
sebanyak
gratuit
peaks
##lech
##ٍ
нче
قطع
nzira
zgodnie
##tne
joten
Romania
nieuw
yorum
##վի
##mh
Job
##פת
tramite
जनाएको
139
informazzjoni
вместе
Ft
Bush
walikuwa
Kiel
mission
korral
ưu
duab
einige
kesempatan
қалай
можат
gbe
##rad
xxxx
press
livro
тус
ultricies
이미지
##elt
install
Владимир
முடியாது
प्रदर्शन
Puerto
ullamcorper
dạng
aloha
dituen
договор
мир
ក្រុមហ៊ុន
siyasi
##cos
Datuk
trwy
vei
SELECT
familiar
drug
niður
Yoga
سنوات
ছবি
Rp
చేసింది
##ulu
អំពី
فصل
tuần
serikali
uomo
шул
average
ڪيو
growth
recently
##ній
Member
Từ
komentar
Uniti
prazo
ಎಂದರು
Rīgas
Stáit
garis
loi
##ame
apakah
שאני
Want
##ность
않은
kuka
níl
چگونه
kosten
ہماری
##tro
brenda
دنبال
სხვადასხვა
ତା
unul
خیال
આપવામાં
Cambridge
मुख्यमंत्री
dra
erittäin
dní
ਘੱਟ
servis
cik
аларның
دهید
gaar
юк
##hal
nouvelles
situación
район
6000
streaming
desain
znam
göz
##போது
##eth
mooie
Ваш
විද්
случай
##ٽ
kultura
kennis
harren
holda
гэты
kuchokera
hatin
мені
онд
chị
lives
possa
quer
puas
Dance
করবে
Austin
celle
ornare
KA
aca
sıra
throughout
mivel
##dii
edad
Nelson
bieden
huyện
मलाई
empat
yẹ
muitas
agli
##주
utilizzo
virkelig
Tower
ette
alltaf
вакытта
mám
amo
pagamento
अनुभव
ಮೊದಲ
Тој
participar
quân
tank
ដឹង
terang
lā
kilometer
doel
vraiment
saboda
imao
##лан
hilabihan
takich
pessoa
लोक
poti
རེད
##inta
##unda
νέο
então
geniş
calquera
lika
קענען
დღეს
##गी
##vana
देखील
incluso
པས
breve
##ىنىڭ
தி
Segundo
tillegg
gcuid
varias
##ට්
Forvo
websites
తెలంగాణ
dort
บริษัท
millions
нова
mejores
gold
प्रभाव
وَسَلَّمَ
entuk
svært
##дағы
جاتی
ילדים
adresa
##даа
##될
sistèm
faʻataʻitaʻiga
parking
બાદ
principais
akọkọ
Monte
##す
##anje
действия
hejuru
burada
milhões
##జ్
##τ
##ación
waqt
##ము
واحدة
##ról
pamwe
lahaa
Euroopa
želi
kopi
##оти
138
दिला
vana
összes
Portal
improve
drugo
##들은
lokaci
copy
##ingiz
kësaj
##ኛ
ultra
tidigare
##lina
lazımdır
మన
allows
वापर
होतो
voda
قرآن
awon
silang
instead
##સી
acid
metais
tage
እንዲህ
אפילו
ሌሎች
dato
rosa
Santos
Oct
algumas
joan
えて
सो
بہتر
गर्नुहोस्
nhiệt
देते
Negeri
التعليم
obsahuje
dòng
mzuri
legjobb
числе
##λ
бошад
loop
kayu
đáng
teñen
स्थिति
Zu
isti
Bütün
##מן
شوي
فلم
Take
herhangi
Pag
satışı
149
##تان
2021
orta
##box
Peb
मूल्य
##एं
Recht
kule
proizvoda
kështu
cố
වැනි
##ሪ
##asa
##ются
diferente
lossis
eno
tố
olabilir
resevwa
##non
VPN
ladan
trei
##وب
lhe
utilizza
partes
являются
##лни
Pablo
Learn
අධ්
##وس
##lana
limited
##zt
##ും
editor
Кроме
विभाग
ultrices
1080p
environment
tib
зв
místo
النشر
текст
Clark
سلام
дзень
îi
אָדער
хувь
наши
##소
неговата
खूप
##dom
hoteller
Barbara
thần
Isto
सामने
leai
बिना
birçok
గత
አንዳንድ
ہوتے
##용
רב
Foi
Mrs
Koma
ភ្នំពេញ
Из
őket
ابھی
السعر
Τι
wewe
##logia
according
dó
kautta
որտեղ
inaad
שלכם
око
എന്
limit
fwy
Oil
##essa
Stockholm
##נ
средств
najbolje
घेऊन
equipment
##æ
Personen
იმისა
клуб
steel
##כם
قتل
##kı
cusub
něco
pick
##ško
momwe
##ський
surface
đóng
wetu
כלל
GT
author
Santo
precio
##שה
دیگری
##ரி
wenye
Ra
береді
لك
bla
Access
##ette
tashkil
بهتر
тыс
Roberto
retour
aikin
WA
Todo
Institut
בדרך
Đồng
bahagian
##art
noso
الشركة
Av
##ós
eikä
atrodas
##צה
##ipun
alternative
તેનો
hanga
ceart
بارلىق
lokhu
##ക്കും
worth
dugo
gewoon
سابق
Kit
حزب
faʻaaogaina
نتائج
ពួក
Apps
көз
Trade
yau
Dragon
avulla
Þeir
spune
Linda
Tamen
##ప్పుడు
annað
##hwa
yoxdur
##misen
Collection
Hz
horretan
મુખ્ય
comercial
##më
الاتصال
இருக்கிறது
oltre
Wong
Privacy
Trường
təşkil
##itas
Wikipedia
Keď
sidste
ushbu
pese
resources
fix
ovu
whenua
Lietuvoje
мяне
kraj
nikan
importanti
##ಮ್
Беларусь
мэдээлэл
Muslim
##ját
mă
مشکلات
manana
jier
##σουν
custom
vitin
stehen
Əliyev
Digər
parang
mane
##iny
කතා
পুলিশ
Prime
acceso
##wej
spus
256
##нні
Winter
सही
##യ്ക്ക്
nepieciešams
Even
Kom
قېتىم
ομάδα
другите
##ក
ydych
అదే
finne
μη
rwa
izmantot
mujer
##има
ceeb
эл
##ними
cash
старонкі
august
##ച്ച്
যেতে
vindt
naši
ihn
हमें
iom
##lite
falar
semula
mbeidh
עבודה
##בה
born
הראשון
##や
hitta
##რება
natal
अलावा
##લી
أول
మరో
##ница
Projekt
##ális
પહેલાં
ሙሉ
tj
rétt
võimalik
Bruce
success
Style
эрх
##itu
albo
XVI
tamo
gemeente
Internacional
forza
entrar
##ові
akā
##же
مرة
##mel
كتاب
རྒྱལ
Вот
Sơn
Presiden
CNC
##ude
pensar
Pellentesque
accumsan
ឱ្យ
##ട്ട്
گیرد
Jam
guys
pwòp
##ено
gutt
##lles
आगे
analysis
kufuneka
ලැබේ
žmonių
लगा
חדש
sahiji
##red
procesu
এখানে
##šte
grade
siajn
##াল
##kho
##лно
ବି
става
##යට
이번
méid
minħabba
wollen
sistemas
Questa
ceva
gouf
kolme
բան
svog
resposta
njegova
групи
күрә
Municipal
##ney
மத்திய
stesso
ọpọlọpọ
ಆರ್
Lei
py
prijs
##book
החברה
المعلومات
Buy
razvoj
なので
hava
##rani
LTD
اضافه
Rusiya
Už
ээ
AND
humor
ਵੱਖ
конечно
stat
Universal
historie
kāna
vagyok
sawise
ligt
cine
بولۇشى
ჩვენს
auga
##ped
времето
##회
hast
leader
nyingine
વચ્ચે
својата
येणार
##ಂ
latihan
wedding
mans
##langan
Putin
लगभग
##ుల
##erte
Sultan
sifatida
사용
متر
janm
گذاری
199
muchos
gol
इसका
whare
marta
əldə
##dem
Charlotte
##šanās
ਉੱਤੇ
taku
zein
monitor
eski
##°C
sebi
recensione
wszystkim
यही
зөв
शरीर
##ะ
##ое
onse
##दा
purpose
Kabupaten
خصوصی
leder
penggunaan
##ቅ
##vna
##kala
მაღალი
Head
##lem
membaca
svetu
##ία
nutzen
##vni
SPAN
##cion
##rg
goes
არიან
##ET
Airlines
ማድረግ
ularning
##ص
පසුව
##ဖို့
yenye
hêla
##čnih
Once
մինչեւ
ప్రజలు
Coast
проблема
Benjamin
ikan
wee
między
gama
##larga
##rate
consider
бие
මගින්
##ből
##idi
nâng
dispositivo
##jum
nis
easily
резултат
##nyň
scene
tirsan
правила
##nite
jogo
##өө
सब
данные
Timur
gá
නව
दुनिया
நேற்று
어떻게
Србије
ಕಾಂಗ್ರೆಸ್
137
informácie
のご
Hon
erste
##ीत
celý
имате
GP
Hải
diferan
quickly
Falls
جون
##par
##ļa
##yay
Wetter
книги
suscipit
luas
îl
##far
واقعی
følge
škole
Mara
##ี
shipping
nostru
##ড
vrata
فرهنگی
יכולים
לפי
Lucas
زنان
zabo
специално
##хо
خدمت
figure
neden
Volkswagen
Illinois
##лган
moderna
junto
எல்
niños
##larning
hawn
Voit
Bereich
##az
necə
saluran
ras
uusi
ಡಾ
starp
მა
##keta
ଆବଶ୍ୟକ
reg
Magazine
топ
##ję
ребенка
ಬಿ
राष्ट्रिय
condividere
##قة
holder
svom
##μ
suv
##ência
profit
हालांकि
bà
près
pakai
dhaoine
проста
poolt
Така
Wood
FREE
algunos
hear
Acest
EM
kurių
atención
υπάρχουν
134
īpaši
hjem
kufanele
##lab
གནས
Ontario
Mari
siebie
##lna
وزارة
##ំ
##sun
عندما
onlar
जाना
servir
znači
prodotto
morate
නැවත
bati
serviço
nevoie
##mir
سن
##nau
בה
##tara
Nabi
gute
career
##lí
Kia
##pp
cross
белер
bayyana
nummer
experts
Silva
ହୋଇଥିଲା
የተለያዩ
cez
ort
cạnh
##ვა
##EL
eran
##ške
##skim
##odd
##ayo
företag
تاہم
Training
børn
planning
Ferrari
қол
අමාත්
suara
زمانی
senere
##ანი
प्रेम
##ί
Níl
##oso
solar
faris
केंद्र
##аш
امور
phủ
MC
goal
##יו
Italy
##ମାନଙ୍କ
ཀྱིས
ହୋଇ
ക്കാര്
##jske
Pacific
Natural
Hamilton
vestibulum
Оның
najbolj
امریکی
SR
Өстәргә
Dec
жаткан
하지만
nifer
##اق
ẹgbẹ
Northern
السابق
##joje
##ència
disponibile
tahi
##мын
ambiri
##čio
ממש
гуфт
##fan
wà
Var
##vio
##ଳ
Ние
ඔවුන්ගේ
дода
literatura
pekerjaan
User
үүнийг
##כות
tajjeb
කිරීමේ
roky
Action
שונים
특히
##τες
Vad
##ستان
Pin
train
zajedno
##dt
anumang
шоу
uwezo
sonraí
öllum
šīs
ਰੁਪਏ
orm
luhur
ISBN
HDMI
bonke
сәйкес
tarp
pse
mengetahui
phá
oči
Lihat
ঢাকা
korda
vue
megfelelő
##oedd
vezi
sv
हाम्रो
cilik
khóa
##нин
גדול
ପରି
Angel
cream
imamo
asmens
পা
түрде
##tja
उसकी
மட்டும்
Brand
शब्द
وقال
senang
Phone
verso
منتخب
děti
Sang
##lay
Chile
taga
ezin
naš
Éta
1933
obtenir
eona
##mış
egon
තම
रहने
##పు
ദിവസം
ជាង
##ئر
Cali
##tok
##tim
чӣ
शकता
muuta
해당
parties
dne
sull
##lada
tuyển
certains
நாள்
nakita
330
##ల్లో
ဟာ
##shme
બંને
Saka
##ং
következő
piti
эту
vaikka
eleifend
arep
tersedia
عوام
dabar
perubahan
Ankara
ώστε
##ос
dobra
fyr
##ках
Kina
Camera
شاهد
Onun
continuar
seves
मे
ແຕ່
FOTO
1951
trailer
sådan
lasang
הספר
zorgen
rápido
volte
విషయం
ней
võivad
Bollywood
तुम्ही
свое
programas
alkohol
ndụ
seront
hyvä
қатысты
rekening
phía
domingo
##્યા
ბოლო
NET
نحن
обаче
రెడ్డి
##ांचे
gotovo
##ilo
මා
advice
pellentesque
nabo
پروژه
তাহলে
ďalšie
너무
organ
contoh
##anza
##वे
lajan
хэн
effective
porttitor
chịu
hands
usted
kamp
##ља
variety
##ція
APK
pos
eiga
##yaan
##lerine
مِنَ
##вала
puhul
масло
periodo
##овые
решения
cepet
درمان
Gary
720
толкова
الرئيسية
HCM
ណា
Morbi
među
parto
mtoto
race
iru
##יר
gets
Save
heev
يوق
tounen
ወቅት
séu
politike
қарсы
complet
דיין
##turi
ET
nisy
letzten
ਜਾਣਕਾਰੀ
ntaub
Wer
шинж
Unha
との
отырып
درمورد
birinchi
synes
ድረስ
теперь
endast
બીજા
redan
iska
ничек
jwe
novel
រឿង
မှ
असतो
алуу
##னை
##ması
iwi
అభివృద్ధి
дизайн
Cat
konusunda
ακόμη
mutu
##ੀਆਂ
yerine
dhacay
aumento
ಹೇಗೆ
すると
отыр
Mwari
Sign
##NE
ایسے
rhaid
##ult
BC
скоро
ciddi
countries
##lių
פאר
ઘણી
መሆን
sorte
مربوط
utilizar
සියලු
persoon
veľa
евра
પોતાના
lanjut
четири
Jy
CM
niam
pub
##rian
pretium
Ukuba
בני
точки
##лася
varius
ഇവിടെ
shiga
FBI
dock
лечение
Pum
##σει
رشد
lege
tikrai
شهرستان
вопросы
##дун
vidéo
সময়
Baina
ponad
ವಿರುದ್ಧ
nda
स्थित
ਵੀਡੀਓ
elementos
character
ieħor
480
اخبار
##дагы
faktisk
گیری
όσο
##kim
zit
fac
##되지
uống
მეორე
நேரம்
ekkert
##દ
ఉంటే
sommes
Whatsapp
مركز
čini
roedd
Dum
اتفاق
ఉంటాయి
વિવિધ
продукт
игры
beauty
tagħmel
olunan
страны
sambil
mbele
گوشی
optimal
etdiyi
Ләкин
Luna
اطلاع
##эй
stvar
тогда
उसने
برنامج
completamente
všetko
session
sadurunge
Qui
egész
سامنے
##lum
##tun
##aba
olacaq
##ví
lave
##лек
Baş
coisas
1st
বাংলাদেশের
заради
यात्रा
myself
##lü
بنانے
##owanie
wall
ಅವರಿಗೆ
ఏర్పాటు
bois
PHP
##kap
अमेरिका
ansanm
##산
چاہتے
vrste
бірге
जना
Racing
سنة
mohio
##ണ്
##lad
##nius
##oval
##אות
##ndu
Cada
našem
##yek
players
bisan
street
str
jarri
##ità
entire
Ketika
gehad
jasa
ಅಧ್ಯಕ್ಷ
μήνυμα
##оў
ginawa
dobu
##ėjo
לראות
##dat
বেশ
apho
recommend
daude
माझ्या
##uksen
mesti
секој
ktorú
perang
##אי
laila
Mart
omah
माध्यम
License
μέρος
संयुक्त
##ದ್ದಾರೆ
சேர்ந்த
##ందుకు
среди
frame
โดย
رد
してください
Diamond
شہر
##した
दूसरे
Christ
##ŋ
##shwa
##ங்
digid
nogen
цели
olevan
##lak
##tati
Ĉu
147
ofrece
Ayrıca
paano
spel
calon
##ása
Personal
MALE
meðal
Gmail
করছে
Nuk
нәрсә
##hang
atât
personali
Commission
##esa
тук
alcuni
cand
lucht
توانند
pontos
##liste
##kana
shall
tech
##rda
XI
trochu
جنوب
Howard
sicrhau
öðrum
негізгі
garantir
சென்னை
ಬೆಂಗಳೂರು
molestie
providing
meja
dokument
tine
علاقه
kiếm
등을
kitų
relevante
ute
##nę
nouă
##pia
##sas
صورة
lata
##ար
stare
tahap
ليس
lingua
##ového
mogoče
hoʻohana
Mana
նրան
Other
resulta
zna
жағдайда
pemerintah
##ária
pitit
gång
terminal
##ear
가지
snart
medlem
##кә
##rice
କଲେ
През
remember
bug
##tve
##twa
ervaring
vahel
Walker
rahisi
##nse
siapa
##ив
aunque
##მის
کیے
Më
اندازه
fina
iklan
Single
##மை
positif
сила
tr
numai
Orang
menghasilkan
bakit
##lek
изјави
نتیجه
##tza
அதே
بانک
Julia
dair
Madaxweynaha
10000
minutter
మాట్లాడుతూ
akár
##མ
прав
nne
ведь
##jin
costs
##లా
swoich
ath
MOD
ارتباط
שהיא
handel
Che
କରାଯାଇଥିଲା
могли
provincia
##ciji
##നെ
Russell
Jūsų
ningún
первый
হৈ
වීම
Suspendisse
##bot
ফলে
инде
##sje
صبح
bansa
##achadh
انسانی
ponieważ
Musik
народ
दर
côd
পৰি
ponovno
mô
gal
གིས
próxima
Wa
##CH
izvi
ahịa
##дары
адрас
zašto
Unsere
petits
oba
##ление
ಹೇಳಿದರು
vaxt
いて
Polski
যারা
##ера
direction
প্রধান
பல்வேறு
##kur
जांच
posted
insanlar
बैठक
ٹیم
Itu
##ਿਕ
##мыз
thuê
פו
گل
gaur
citu
राष्ट्रीय
##லி
##ug
payment
պետական
según
vieną
##ನೆ
##acht
העולם
##luk
##pit
ludzi
ellos
meji
input
##ການ
مرکزی
đàn
quelle
##ებში
trận
##ரை
##иш
σαν
abaixo
हाल
شب
similares
صحت
gerai
##ির
##ría
होऊ
പറയുന്നു
સમયે
wish
##side
díreach
icyo
децата
modul
maoni
Ile
reeds
##ings
munthu
##دة
గేమ్
##رو
encara
αυτές
##سي
значи
ඉවත්
muitos
بسبب
glass
SL
professionals
buscar
ਮੇਰੇ
Lane
zdaj
vodi
ਮੁੱਖ
kumaha
jeni
магазин
njaluk
товар
முறை
саме
Suites
Guy
GM
منها
midis
Library
##ών
kapal
cinema
medidas
hê
mollis
hart
bych
בישראל
САД
новый
papier
lacinia
dèanamh
##ტის
kooxda
әр
##ან
##stra
interested
programs
soe
expert
vuotta
בשנת
techniques
Mis
klase
Intel®
ඇත්තේ
1929
##RI
لكن
voljo
##jām
żeby
Baru
مو
sano
wanafunzi
##out
тот
##HA
Oliver
##ym
##maa
##ků
YA
MHz
зохион
##овых
kadın
egoera
берген
Ireland
Hills
najbardziej
fios
Dell
év
commerce
सामग्री
mineral
##mt
päeva
##גן
Lincoln
bala
juos
しさん
Wild
interview
असं
##vet
##tva
HTC
åt
giấy
materia
Wayne
сама
rival
maso
##ကြီး
feed
blandit
संबंधित
besonders
zelfs
##ól
##ਵਾਂ
kunagi
fat
##있는
लगता
sociales
terutama
##ଗୁଡ଼ିକ
Cách
##jší
##niai
##iwa
වනු
trenger
##ದು
mele
بدن
##ével
aluminium
großen
tiem
ਦੇਣ
##nic
chóir
dolara
නැති
Made
##tico
ayat
ասում
بي
##ছিল
##dka
##сен
##യ്
##JA
143
Moon
فإن
##yÑ
mingħajr
jeder
alapján
ofta
##tso
152
எப்படி
Trust
бус
калган
ട്ട്
soft
plastic
جلد
Hello
miễn
llawer
ରୁ
munisipyo
హైదరాబాద్
jederzeit
##רי
bunun
hotelu
##ян
taa
monte
Color
floor
λόγω
141
diabetes
булса
playing
##ික
gens
feugiat
Cuando
gæti
lower
Sebagai
курс
##ск
##ます
sociais
hewa
##jiem
##ც
siihen
##ilor
दिएको
தற்போது
##gus
алдында
cadrul
машина
##のか
nla
##cis
sede
находится
क्षेत्रमा
خاطر
Low
Ms
##iin
dahulu
##лады
својот
Isa
leto
futbol
##uÑ
pria
Đây
ilman
がある
Yr
##יל
mahusay
AMD
##ep
profesor
##lom
જરૂરી
ذکر
Raja
##ování
높은
dona
##yr
väl
euskara
Kua
түрлі
tayari
میزان
இருந்த
کنار
rencontre
хотя
pomoć
Zum
##emos
tą
jakości
کردم
kuye
حرکت
reblogueado
##ିକ
نفس
беренче
SAP
dere
διάρκεια
##dora
gawin
relación
більш
sexual
##ส
અલગ
##քը
##hon
problém
142
əvvəl
zvinhu
khá
##ык
tycker
ibe
dù
tinha
процесс
ಸಹಾಯ
billeder
стал
ministro
ხუთი
となります
નવી
Castle
##Ç
##য়া
ಡಿ
olacak
##ér
នាង
pt
Dünya
raro
имеют
చేసే
ciri
mrefu
إِلَى
فعال
स्कूल
##ງ
ပြောသည်
##NO
##ట
liña
ngwa
Body
interesting
jumla
mòr
پسند
minit
gak
##ира
μεγάλη
mamma
##hla
ສໍາ
લગભગ
rond
nebude
trouve
##inde
Lima
bianco
kadang
angka
алардын
joto
Олар
lide
mùa
Cristo
Cultura
करतात
kilo
nung
Bangkok
لن
pake
embargo
##ranje
хеле
##CE
ngomong
hacia
своим
ของ
dès
kawg
sut
transporte
##して
Vì
Namen
தன்
Ngày
fakt
batek
##ћи
šį
decir
ડી
##ель
خون
blijven
Only
ditindakake
joko
heman
आने
Ariko
dúas
annen
satt
देता
##명
חשוב
dokter
##כת
##يو
Nya
доста
hästi
másik
technologie
ਆਈ
قائمة
##ams
##tivo
plak
feeling
қайта
કહે
Brazil
ndio
reyèl
##न्
Jazz
Beispiel
tuoi
##sus
இதனால்
されている
където
interface
aaye
##વ
танҳо
asosiy
lol
protected
##പ്പ്
dagar
மிக
асуудал
անհրաժեշտ
trắng
ingon
qabul
πάντα
жатқан
categoria
suất
всіх
necessary
અમારા
thiện
যেমন
bel
totalmente
أحد
бири
pedido
fresh
contract
ddefnyddio
##är
تعليق
वेळ
##isti
Tây
mila
cuir
trạng
Mix
Robin
الحكومة
ئىش
privind
какие
inaan
toi
някои
Aliquam
hev
##ىسى
##ión
heures
деди
pita
viverra
##ʻo
nzvimbo
Telugu
##more
imágenes
լինի
poderá
pilota
population
ase
במיוחד
નીચે
którego
olahraga
strany
хэсэг
##ácia
يو
ואת
##lərinin
pomoći
руб
område
udara
simu
380
སུ
lobortis
njalo
جای
міста
आदि
XX
consumo
beth
ġew
register
##רות
chữa
Thủ
146
Iesu
##ん
##owym
करके
ବିଭିନ୍ନ
الجديدة
segurança
Touch
saham
Mən
##pon
مسائل
Johannes
baš
الصين
##эр
148
##wą
kanal
juin
##வு
Napoli
допомогою
ikusi
WC
##kai
jotta
ხდება
nära
Prima
benefits
ਪੀ
રહે
ditugu
περίπτωση
내가
ciidamada
этим
disco
ordre
ajuda
##zna
##લા
ठीक
Их
сезнең
lâu
Arbeit
buruzko
##rika
බවත්
ବର୍ତ୍ତମାନ
ọkọ
ciutat
sillä
betyder
würde
چنین
بما
850
DS
Amin
Harris
خوبی
ജി
##ева
##ਰੀ
##ത്ത്
##ਡ
zituzten
ích
ankò
tässä
údajů
imperdiet
##arre
taal
pengin
آف
बड़े
sanble
diferents
##eid
pitanje
Kòd
valores
complex
##०
Londres
ପ୍ରଦାନ
TT
Mine
Waa
ప్రత్యేక
эш
##ვის
Southern
ఎందుకంటే
davomida
ଆଉ
selain
jasno
History
সকলো
عملية
gcónaí
गर्नु
default
Nissan
sepanjang
ones
##ора
మంత్రి
##ūs
Andre
emi
jopa
tilbud
ఇంకా
Ae
##sm
ability
kugeza
##miş
melhores
kiʻi
##ማ
dide
منظور
Dallas
れる
##heit
інші
территории
કા
xuống
Matthew
##ave
seulement
mwili
Contact
wajen
echter
##վող
151
bèl
شمال
དོན
Marine
Grad
highly
२०
საკუთარი
гэтай
##iy
części
आदेश
##даг
SSL
Spiller
munsi
usługi
gare
##іп
façon
өзі
contenu
interdum
bambini
proc
လည်း
arteko
honom
ঠিক
האבן
کیوں
због
nær
bá
voz
thanks
sona
شورای
Delta
ମୋତେ
खुद
Steel
eigenen
##pita
бардык
zusammen
##이다
##ять
queda
Հայաստանում
camp
Blu
સ્થાન
##aw
punti
205
хэрэг
Many
여러
Case
raw
עדיין
développement
apoio
titre
пам
settimana
##dre
nghĩ
ریاست
месца
Sound
નવા
walaupun
tuyệt
xüsusi
ಸಿ
nhé
Dương
Renault
تلك
għat
قریب
##ják
þig
մեզ
End
turėtų
##ಡ್
қазақ
##oda
hus
दिने
batang
carne
##wego
1935
ይህን
Russian
tè
mejorar
##esta
тодорхой
##वून
##ява
Pi
agak
##ex
primi
##ವೆ
eitt
Pennsylvania
tieši
demikian
ويو
##şi
##увати
kelompok
Desa
ចេញ
Christopher
Steven
Ingen
stan
##తి
Украины
##ела
grupa
dare
groups
Máy
##নে
formato
помощи
título
болду
einmal
kwani
##را
##hus
ụdị
##oun
Batman
милиони
банк
CP
obter
Dag
års
થઇ
tillbaka
aois
##park
كبيرة
आयोजित
Pusat
##iyê
##тка
доллар
тэд
Any
дейді
वाला
krijgt
படம்
Italian
alu
sell
চলে
Интернет
##ดี
kterou
ھازىر
##sına
dictum
Kurd
नवीन
áll
##vić
##кан
##ře
Vincent
predstavlja
deben
միջազգային
##ae
сайын
kene
гадна
trebui
saker
mattis
भाषा
Professional
рет
właśnie
Bruno
fog
सर्वात
SK
üzerinden
mul
шмат
катары
により
araka
helps
##כים
нав
некои
Atlanta
deyib
வந்த
##cak
almak
хийсэн
hien
deti
Major
##ъ
ken
зураг
సమయం
tsi
fós
γίνει
ඊට
Tab
genre
жолу
नए
Sama
mkpa
մեկը
товара
ئۆزىنىڭ
dades
##iku
వాటిని
olsa
##zenia
##IT
zava
máme
##ĝi
peluang
Ende
cose
הא
इसी
diras
मृत्यु
Ocean
twg
kantite
Wales
druga
giản
সাধারণ
deu
נראה
علاج
nhu
직접
Aga
##ĵoj
કરવું
лесно
MM
እንጂ
बच्चों
cập
Edge
##ово
ក្រោយ
производство
σύμφωνα
벡터
ऑफ
Luke
##ácie
କରୁଥିବା
края
форму
##dele
должна
Football
Nke
мэт
##ნა
XII
##یر
grond
##mista
Browser
이상
força
ມາ
Μια
یوه
ди
##qi
часов
##run
díky
##бе
##식
volledige
setembro
##ēm
fata
চেষ্টা
ZA
Etter
sakin
ушул
##ണം
Rome
холбоотой
जनता
تماس
##рып
Apartments
##되었습니다
ನನಗೆ
တော့
vegar
3G
magazine
முன்
ụbọchị
xeeb
Magaalada
trò
चाहते
bantu
ნამდვილად
りの
##чного
சென்று
ನಮಗೆ
खान
smrti
eventos
deine
Switch
Messi
elemento
الناس
قائم
ಮಾಡುವ
média
ধরনের
##jom
Dann
##ά
##ями
##igi
seguinte
жүзеге
елда
##kseen
Corp
хората
देण्यात
Weg
дұрыс
безнең
conto
yini
каза
بچوں
관련
TOP
Records
##யா
maður
Zoo
تمت
wrote
Natal
correu
rett
शर्मा
##тон
elementum
Kaikki
くの
byli
##tna
##she
##ntis
tree
##ої
wrong
chunki
Hur
##हरुले
Bon
තිබෙනවා
trhu
##rata
hút
leuk
##ગ
mom
modeli
ລະ
illa
режим
କର
195
kuweka
motivo
quick
என்றால்
##all
бірнеше
μιας
ខាង
बजे
كيف
ankoraŭ
##zioa
natuurlijk
תמיד
עכשיו
convallis
않는
insanların
zòn
lum
##vara
కలిసి
##간
पैसा
##lisa
##هِ
##့
Amy
##ጥ
##ydi
iwo
##itate
lume
agbegbe
##BA
کنترل
бүрэн
Indiana
RM
ndalama
##сының
temperature
Genel
består
Об
COUNT
rudaí
trái
decision
يەردە
istinadən
##рын
##ento
aba
Mag
kích
navigation
इसमें
iw
मराठी
##kie
भर
తెలుగు
πολλά
무료
وروسته
bidhaa
ṣiṣẹ
political
AV
Zäit
samtidig
inqas
новые
inni
##unt
đoạn
мой
ਫਿਰ
mln
Ross
Pass
sapertos
пет
Iron
Financial
##khala
##ct
работе
Avrupa
doc
storage
duduk
mundial
Platz
##dlo
ক্ষেত্রে
tseeb
##သူ
წინ
dali
njegove
କରିଛି
##ран
Þá
##vina
##ಸುವ
Chí
Azərbaycanda
##ow
Senior
Alba
degree
##öt
Description
##лды
joita
బాగా
##рак
mnoho
##mini
method
yena
پانی
##ப்பட்டது
##ேன்
leið
eitthvað
voalohany
surtout
##чі
hồi
אָבער
κόσμο
условиях
kumu
áreas
kroner
అంటే
cloud
Fair
དྲ
Nature
ejemplo
swoją
хар
presso
##נס
ਕੋਲ
siaj
jobs
அவை
balance
లను
##들의
Product
##uto
заказ
dovoljno
دیکھ
Além
hadir
बैंक
πληροφορίες
algún
tịch
##تە
गते
kontak
ຜູ້
plat
Minister
topdan
dijo
destê
जबकि
##nel
santi
sheria
##யான
følgende
plaws
##cing
Lumpur
നിങ്ങൾക്ക്
ruta
eriti
tshiab
analyse
##νη
niha
skoro
چیزی
septembra
##asyon
газ
месте
require
програма
konpayi
Field
així
verdade
ཡང
beiden
같이
Mp4
interes
amat
ffordd
ktorých
##ూ
அவர்களின்
trīs
dama
##вой
Mēs
ጥቅም
három
প্রায়
말했다
suur
baca
##لۇق
##hl
##jena
Minnesota
QR
করি
அவன்
bann
frais
siç
الولايات
##ことを
דאס
##З
Política
Forest
##ப்பு
konke
bumi
VS
doono
Hoàng
saanud
നല്ല
proyek
Rd
meel
laakiin
Ibu
вообще
બંધ
материалов
##unum
IR
olet
گونه
muchas
##tam
dafür
موسیقی
Ova
##دی
##tera
bör
##yd
შემთხვევაში
kể
internetu
kheej
అధికారులు
##aq
1912
##ít
шуда
1910
##ვს
ජාතික
Avropa
##ಕೆ
##ako
بلکہ
urrainn
gde
##վեց
##වන
wonten
approach
##ଟ୍
развития
ਪ੍ਰਧਾਨ
handle
Hulle
produkto
Account
heta
niiden
chif
hoogte
##נע
pobl
ofertas
##ण्यासाठी
##etako
bomba
Down
Diyos
fringilla
##rni
առանց
sửa
нашата
Bondye
chắc
##шу
ʻoihana
annars
projekta
đâu
A4
زور
kusvika
التعبئة
счет
aplicación
අපට
སློབ
##νο
wirklich
anao
recht
##else
napríklad
##wer
Abraham
odnosno
jade
##ыр
lugares
kor
venenatis
Kinahabogang
яку
saé
oed
##zą
quo
ம்
##पुर
הכל
##ಯೇ
##lte
gelê
זייער
SM
QUE
isan
Φωτογραφία
१५
பேர்
##lands
druk
있도록
ዓይነት
ọma
क्लिक
cantik
##لة
Guest
##ད
ремонт
elements
##ኑ
##بي
рік
uburyo
##heden
حجم
vitu
taxi
deles
தேதி
Tips
##nji
##sə
הכי
χρόνο
kimwe
Bahasa
Hawaii
Kiam
кабул
दें
##ецца
##iú
제품
##ён
##лж
##ನೇ
##ൺ
anul
##esti
potpuno
ដូច
Sistem
##ність
finder
Jen
प्रयास
біздің
skapa
kinders
##ခြင်း
ଆଜି
merah
вариант
Чи
ajudar
anime
گرم
מידע
worked
##eva
##ล
##iska
photography
മികച്ച
Since
ביום
aura
ниво
مرد
पछि
##ún
##sız
Menurut
стало
مناطق
suoi
##tab
Sono
##īt
Jessica
četiri
Alles
##зу
conseguir
shkak
##rim
##vané
##əm
factor
##Σ
sá
máximo
Seattle
개의
bg
rezultate
Neste
Vladimir
##ള്ള
tillsammans
ያህል
Když
znamená
1934
Mall
barada
ой
përdorur
ቀላል
##णी
##js
möchte
kez
congue
156
quận
хүлээн
micro
GMT
そんな
Aš
omi
કોઈપણ
Universidade
teil
роль
hosting
celor
##इ
زن
ಸ್ಥಳ
visite
កាល
época
##ларда
барып
стоимость
MT
éagsúla
사용하여
rimwe
##лення
tiada
šest
leathanach
मोठ्या
asawa
organisasi
abi
ndogo
منطقة
zoek
aliyê
miliona
##िएको
kbira
genoeg
بهره
hagati
##ast
použití
relationship
কেন
Þú
##уд
ນັ້ນ
पुढे
aldri
Denna
പോലീസ്
##ლების
दाखल
नई
ot
מתוך
svet
όλες
Sala
જેવા
mateix
iuj
##nit
##osti
nhật
বিরুদ্ধে
prav
Sunda
structure
##azione
haraka
##టి
ادا
ಇಲ್ಲಿ
François
eder
Республикаси
Mia
ችግር
Բայց
وب
##하십시오
##gio
Hey
בעלי
##ID
##पी
Ela
ÑÉ
качества
kebutuhan
කරමින්
##ър
dyn
finish
warto
ħajja
жылдын
disso
GO
webu
oda
kitchen
अच्छी
ເພື່ອ
rw
möchten
വേണ്ടി
hafta
##ери
placerat
edasi
Benz
чөнки
Emi
kokuba
fiafia
##ულ
pomocí
alama
##ције
##ंट
Dua
##nana
##താണ്
والتي
Suomen
почему
στοιχεία
جمهوری
mujeres
hendrerit
آینده
شماره
ndiyo
##tava
mesure
##скиот
espera
##્ટ
miña
Đà
страни
##siniz
תוך
tap
##크
kannst
##തിന്
savas
בעל
ekran
alma
umwe
ರಾಜ್ಯ
ika
թվականի
ஒரே
memastikan
##gin
daarvan
pungkasan
Αρχείου
##mata
наша
dowladda
pesawat
қамтамасыз
περιοχή
##ლ
dịka
##דה
นาที
##ბა
ಇದನ್ನು
##eze
abanye
فتح
vaan
vision
βρίσκεται
правильно
##pata
##ық
mac
Grace
đôi
##ích
չեմ
##مة
##gna
Jul
buryo
##logy
marché
ສາ
boyunca
maneira
Shopping
ಎಲ್ಲ
دلار
xanh
##ಯಿಂದ
Face
Geld
પી
rue
##SA
signal
##ရင်
Bella
אינו
perawatan
எனது
سمت
daki
##bad
duela
abbiamo
þannig
giving
خودرو
wait
##ида
1928
Америка
membro
condimentum
Jimmy
Dead
eie
Nota
PD
membri
למה
Dom
Nullam
Grupo
##डा
##хи
якого
dhidi
decide
lwen
##రం
měl
##சி
હોઈ
##wat
quot
##ەت
regional
recept
Alpha
alasan
kantor
Integer
বন্ধ
##tle
දෙයක්
ichi
দল
mnamo
Curabitur
жылдан
možemo
တွင်
ranar
porn
hiçbir
aktiviti
begge
cuba
trì
inimesed
wọnyi
##ských
lidí
бастап
whakamahi
999
təhsil
முக்கிய
##জন
##ாமல்
grazie
биринчи
actions
blogger
prvo
Modimo
fundamental
##গুলো
فیصلہ
dikenal
reis
શ્રેષ્ઠ
sharing
حمل
vietā
nm
BB
mềm
##సి
##дө
Us
бірі
##ህ
වෙනුවෙන්
حفظ
وزن
persen
Ug
грн
permanent
często
විවිධ
משהו
ਦੇਖੋ
updates
lễ
##wany
nombreux
##ského
kitea
ideale
DNS
ທີ
trzeba
בעולם
grootste
##வே
Při
muligt
1932
##ौं
علمی
പല
AN
minuto
dây
marina
këtij
terá
Seri
veure
bliain
oia
vooral
manière
Stars
cộng
случаи
init
acesta
henni
moatte
पिछले
Farm
yayi
##nį
កំពុង
##oe
mfumo
215
##מר
aldrei
dam
manter
usiku
##ță
dituzten
##ച്ചു
ରହିଛି
კოდი
mulighed
එහෙත්
##비
pera
මාධ්
##oir
##ení
##sť
१२
постоянно
duket
Видео
verib
मदत
Lapòs
bolan
ያሉ
##tzat
umbes
##ont
Angebot
rai
cc
село
fon
नंतर
ተጨማሪ
varten
большой
##ει
kayan
котором
انه
Իսկ
ailleurs
मेरी
antarane
ngaphambi
koristiti
Gordon
plataforma
podatkov
됩니다
##ונג
commande
kere
rent
Cho
أجل
cual
väldigt
کئی
அரசியல்
dage
jednej
মার্কিন
त्यात
нея
doon
Porsche
nindakake
बड़ी
туры
##cii
asili
Dana
ümumi
##۰
בלבד
Voice
կապնվել
され
##çe
##ਹ
чинь
##cima
rating
berriz
اندر
Кога
ამასთან
Има
##pel
##ient
daiteke
واپس
itself
Frau
levels
##пи
##â
##ଲି
Međutim
maju
Може
पाहिजे
ürün
estudo
TM
ಬಿಜೆಪಿ
তুমি
finna
نشر
limite
soms
Datenschutzerklärung
deposit
##km
##بر
लाभ
RF
velike
vilja
paid
##anta
mentres
Aya
##stan
মত
potrebné
িল
Enterprise
##บ
##rita
দেখতে
##gue
ред
вие
scelerisque
niečo
жылдың
Nun
האב
ilaa
##けど
fehér
##लो
Buch
Москве
ஒன்று
##vou
##ço
tipi
Tuhan
Welcome
antaa
Այն
علاوہ
bổ
talle
teks
등의
Mer
helfen
##କ୍
parole
العراق
संविधान
انتقال
##čen
##wm
enei
לב
basta
انتظار
themselves
måtte
Ring
haven
classes
##īgs
Sada
##sky
strada
ഓരോ
ÑÅÑÄÑ
Tesla
kekere
delo
corps
##ム
गेल्या
##álne
खिलाफ
kuro
rhoncus
153
América
##yat
##вал
Quality
céanna
Engineering
VA
Euroopan
эх
Тэд
##mā
dầu
باہر
thinking
##vanju
Ένα
demê
siêu
নহয়
Quisque
چۈنكى
لباس
##fana
келе
npe
kusho
Shu
ikunu
બની
##eed
##סט
##joni
Reuters
μπορείτε
innerhalb
peserta
##śmy
##ό
cargo
정보를
##łem
lov
kubona
Pizza
ආරම්භ
весь
Display
Koj
ground
Ort
ÑyÑë
gallu
norske
##рды
الدولي
MG
izin
##மா
TE
weil
waahi
mieć
اعتماد
haki
preço
nghe
تجربه
Copa
##éieren
##rede
##ंचा
सुरक्षित
##ві
##нә
dolar
กับ
PAS
##ינג
saking
alde
muamua
итү
UEFA
ప్రకారం
##jev
##ggio
रात
vino
##dí
gobolka
Ibrahim
затоа
gick
investigación
bæði
beach
##ונים
Sol
genau
کړې
ایل
1924
##തും
ជាតិ
życie
الدولة
acesso
1921
pamene
Ib
وذلك
yna
##gita
mengi
fler
##ঃ
Size
Ian
أَبِي
##dam
poole
ସୃଷ୍ଟି
primeru
máquina
##کی
ಅವರನ್ನು
fantastisk
##வது
##imin
نصب
विश्व
podataka
lehibe
kwam
relation
լինել
##sını
##cją
થયા
లేకుండా
Angela
seinem
ବେଳେ
darbu
Mauris
wipe
പോലെ
njima
Mundial
फोटो
בזמן
hiru
##zone
ភាព
winter
използва
mulle
Mislim
hôm
millor
вашето
Chat
större
युवा
типа
सफल
##লা
თავისი
##wal
مۇنداق
الثاني
časti
Grazie
гэр
##ових
জাতীয়
##ään
1915
##ಲಿ
PSD
EE
manatu
قبول
testa
sèvis
lou
1922
##ობა
පුළුවන්
moguće
guda
اجرای
tagad
prof
đọc
работ
malunga
belt
врз
verschiedenen
nov
CNN
minuten
adanya
geldi
blízkosti
ព្រះ
Following
έτσι
baju
чалавек
1925
مليون
village
##ğu
nhóm
chip
stuff
osobe
##čko
امر
דאָס
distance
enfant
протягом
coach
Johnny
mamy
##lərini
kaulinan
bly
arm
හොඳ
अधिकार
Date
тагын
ngendi
##ូ
geçen
fermentum
работает
sejarah
organisation
әлеуметтік
##vik
kile
ಎಂ
rutrum
Side
partager
##ω
##die
хэмжээ
banka
практически
জানা
##ការ
##ઝ
Springs
တဲ့
kondisyon
supply
desa
ukwenza
மணி
Erik
Parker
ụmụ
##mesi
tiġi
Ngunit
necesario
korang
BÉEÉÒ
వల్ల
aurrera
##რ
Safari
üles
wajah
pulvinar
мире
centrale
Pink
anga
yolu
σπίτι
##нне
kawan
කියා
##ੜ
matla
##ལ
Julie
Komisija
##ową
mwenyewe
вами
timoun
fest
sensor
kampuni
Phú
bok
laiko
indray
સરળ
documento
interessant
##ement
حالة
bakhe
nri
температура
auteur
1913
Déi
لوڈ
സംസ്ഥാന
Після
تهیه
##lerinin
##oto
medios
áhrif
gason
sodales
ម្នាក់
farko
გარდა
aika
সম্পর্কে
locale
beidh
salud
jednog
ہوگی
أَنْ
juste
שפיל
දේ
rero
ביי
བར
denken
Presidente
Ee
Punjabi
chegar
Pia
toku
difficult
हेर्नुहोस्
thart
кем
##ዝ
giống
になります
ẹni
cuisine
##бар
faras
##դ
##йг
بنابراین
droits
Volvo
pilih
الأولى
##bwa
její
biznis
MI
վերջին
ইসলাম
টি
vlastní
isika
പോലും
عرب
vietas
homem
ձեզ
Mumbai
##ನು
droga
Bunun
sum
naszym
během
##кы
##ुन
##ातील
هنوز
fully
основа
elèv
άλλο
օր
lever
langit
kabukiran
##nski
აქვთ
attraverso
wena
Svi
sacara
exempel
##kog
nrho
##ocht
pol
vote
سنڌ
mitään
##่
Source
Jacques
Marka
Etiam
لہذا
гарч
upande
значны
##qu
бяха
izgleda
چشم
Çekilen
dur
кредит
A1
awo
contato
januari
pozadí
navn
##ohet
retro
laget
##չ
କରାଯାଇଛି
bibin
ווען
Januari
deep
arts
##ɛ
возможно
போல
gehen
tomēr
##nü
keras
rhwng
Province
ice
région
imyaka
Eskola
tupe
Ŝi
edilib
IZ
desideri
سایر
tute
autora
सहित
loba
bangunan
piştî
dood
ári
phối
kwuru
İlk
saha
##нт
včetně
Douglas
Luka
baint
##rera
experiência
vn
Selatan
വാര്
goeie
##yl
##šanai
Nunc
succes
ಕೋಡ್
uyğun
personenbezogenen
යනු
करण्याची
ያላቸው
aħna
dingen
यी
##ors
coisa
##გან
DU
पत्र
Этот
jeunes
futur
2022
##াম
kaua
사용할
сиз
pomocou
##ೋ
##որեն
nichts
sanoi
kūʻai
める
##bes
Order
ಮಾಹಿತಿ
ისე
163
kaudu
უბრალოდ
Verfügung
##یل
기자
itd
##पणे
කියන
بسته
Estate
Vita
eskaintzen
filma
##ће
ret
labo
suma
##ynda
Parlament
tamu
##স্
بڑا
لَا
тема
##jana
##င်
pharetra
meiner
luni
relação
1931
listen
Multi
Zealand
ongeveer
hantle
Leta
Title
entreprises
ọkụ
##рі
##kura
##ул
právo
Noruwega
pubblicato
lien
ସୂଚନା
healthy
##erne
blood
facilisis
kohe
direla
reach
ramach
विरोध
##sit
دفتر
ئي
Iako
Massachusetts
quelli
##eja
##mina
կը
shuningdek
Địa
minsken
##lam
lire
hip
افزار
කාලය
mislim
മാ
mês
მთელი
ними
sidan
##њето
kasagaran
##cijo
Mayo
partners
cocok
hjälp
##당
XV
##rite
Република
శాతం
jazz
Quảng
starting
pure
efek
Fl
odmah
zam
159
оқу
polos
##zira
bukti
සමහර
людзей
trenutno
##ob
мебошад
aner
Само
iontach
notes
açık
пеш
##նի
##మ
varð
novih
मिल
eerst
##ように
Susan
produktów
côté
ovoj
perhatian
vamos
վերաբերյալ
mannen
Chef
Sai
קשה
recibir
##ಿಸಿ
##에는
আমাকে
##னார்
Giá
##ää
##니
למצוא
##umo
nānā
бүрийн
অবস্থান
menjaga
Біз
пре
aktuelle
terlihat
సమాచారం
ला
zie
okolo
причина
ហ៊ុន
ئىچىدە
nilo
ថ្មី
Vila
ראש
##rah
dejjem
jamii
होना
θέμα
italiano
tono
emberek
тога
ກັນ
قىلىنغان
големи
cabo
dee
ప్రభుత్వ
standar
assai
##ical
##amento
kroppen
vast
Ara
ingår
तैयार
කුඩා
alimentos
response
rade
##sni
154
Siya
unge
قدم
##ęs
შეუძლია
mad
hãng
##til
ગઈ
असल्याने
##jska
reality
maand
Typ
fonte
fut
άλλα
musika
مطاعم
swojej
découvrir
comfort
##yer
krvi
Mt
##ками
náà
##kaa
Japanese
миний
wina
journée
ўсе
Oregon
buka
Dis
##kami
olup
etwa
havet
ino
##ท
وايي
##иб
##вых
debate
mại
talu
einde
sva
duro
todella
haddii
mientras
Tage
elementi
anseo
pomocą
##ord
##നം
ဒါပေမယ့်
##Г
Adams
ಸುಮಾರು
Toda
różnych
ਵਾਲੀ
script
Dank
alus
villa
koks
दक्षिण
marque
ایف
nina
##water
kuinka
mein
##ීම
acestea
hadiah
שזה
آسان
ಆದ್ದರಿಂದ
Phoenix
رشته
časa
онро
pitää
African
Stadium
sipas
plaatsen
가지고
##tés
cca
വീണ്ടും
sometimes
##며
merk
བཞིན
##ră
berita
વધારે
Wang
těchto
ഇന്ന്
traditional
yiri
אומר
Crystal
##û
syarikat
nigbati
එවැනි
##터
##cina
жаңы
##нные
cunha
мал
Anyị
පමණ
##ljen
offline
##ших
##کس
فرهنگ
उपस्थित
AVE
hombre
ngoại
##jwe
##ળ
വിവിധ
brukes
nkauj
Pack
সরকার
Паштовая
##40
ким
automatisch
সা
развитие
fesoasoani
xét
seul
municipal
இடம்
Grant
##গ
chết
coup
restaurants
menika
patient
गेले
ಮೂರು
1923
hòa
wag
ulike
Мо
sementara
Пяць
Cras
rynku
Hàn
وہاں
bżonn
Þessi
danske
үш
ሥራ
НА
Thị
наиболее
##VA
##NT
Kingdom
chạy
وضع
pêk
katawan
##šie
għalhekk
નામ
##tare
Zukunft
Finland
gweithio
##дей
ਵਲੋਂ
ezért
##ুর
stanie
bước
କରିବେ
ženy
##тки
Dzięki
studenti
Nina
Transport
lampu
##tana
##كى
thaobh
novembro
totiž
pasur
##لى
эң
በአንድ
akibat
##อ
kollu
mulher
yara
minister
##ଇ
chỉnh
##ելու
авсан
suami
nền
Iš
ایسی
##inių
XS
انداز
pasukan
decided
shot
Familie
mjestu
eğitim
sidii
حکم
##ρο
hậu
wet
varer
seem
162
##ций
cilvēki
aquests
באמת
##थ
によって
##ኝ
परीक्षा
qarshi
lwe
##ування
města
للبيع
tutaj
kanca
##lele
miljoen
kadib
Nad
##AM
pitanja
messages
नेपालमा
Thompson
झालेल्या
החיים
tiid
Vivamus
released
##yk
etapa
politica
ngủ
тела
որպեսզի
##ware
teine
##has
ನಿಮಗೆ
менш
tanong
nyumbani
կարելի
डा
militar
څه
fonction
karịa
miten
adott
žene
lorg
maayo
Melbourne
merci
дури
deren
përmes
##kun
буду
Tahun
başa
fulani
नेपालको
ཟིན
daftar
paa
ndonjë
Jeżeli
Programm
##ారు
वहीं
bundan
Guerra
Michelle
##ோ
លើក
sille
##eel
олж
수도
الوطني
qualsiasi
##dala
ardından
vietu
gisa
размер
מן
ける
puso
ningali
##town
Salvador
देखा
välillä
teatro
став
cleachdadh
मंदिर
##ије
바랍니다
hry
حمله
##के
##ிறது
phút
feet
Heart
celé
kW
DAN
##OR
doua
ខេត្ត
داخلی
Stockfoto
##mie
داعش
##вать
Onze
fundo
verkligen
##گر
месцазнаходжання
##nam
služeb
شۇڭا
Ctrl
kuće
मत
CIA
ngisor
jakie
पटक
nóng
module
век
Prozent
Hoy
حیثیت
рішення
चीन
докато
espaço
tokom
Aħna
##inės
lleol
kuongeza
naših
פחות
Outlook
homo
ott
માહિતી
##mad
visar
اش
আপনাকে
Gu
Dodaj
maila
Nhưng
##ză
өткен
secret
دوسری
አይነት
করবেন
پاک
duniya
##ෝ
saate
models
факт
meilleur
мың
hunga
पत्रकार
Apr
ligi
coffee
Ken
различных
taarifa
organization
Tri
161
jambo
tipus
completely
vaqt
이런
전에
eyes
salle
rwose
Kolkata
dienu
سوی
دادن
ವಿವಿಧ
##els
ġie
##ator
##sine
എനിക്ക്
Karen
fumana
##īga
helpu
senaste
Сонымен
tsela
azért
ekip
руки
kina
počet
##सम्म
ouvre
Usa
ikka
##مان
campaign
propio
siti
gikk
totes
месец
torna
##ball
420
პროფაილი
особенно
अघि
చేయండి
##ото
ammo
morda
کس
toen
relasyon
ሊሆን
OR
każdy
##ள்ள
ngendlela
vehicula
كبير
موارد
Send
स्तर
naszego
##ことが
172
निश्चित
àite
tuyến
root
utilise
duwan
paggamit
creating
prezidenti
أنا
besten
sms
სულ
horren
पैसे
score
přímo
sant
проекта
билээ
Membri
зробити
familjen
##ként
arian
होइन
chakula
ឈ្មោះ
bass
olunub
گردد
ఐదు
relative
сон
##ბს
바로
Format
##čil
Diritti
светот
rich
PIN
kože
venta
spring
##kem
благодаря
dîtin
dzień
കൂടി
Jorge
kanskje
158
sociedade
ரூ
nawe
გარეშე
matsayin
zarówno
1926
வேறு
assign
##ഷ്
nuovi
ठूलो
##ța
##aki
##льных
##iel
Kansas
soubory
svenska
##дуу
kamay
údajov
act
chú
ks
seueur
екенін
lys
వారికి
Potter
ჩემს
хамт
öll
což
##ため
pê
nepi
ultima
súil
##াত
にご
Age
Cream
ලංකා
dada
licence
wathi
বাংলা
kaso
ارزش
SSD
акча
Cap
ngoku
derechos
##ston
τότε
जगह
gwoup
Nama
termini
Hala
žmonės
prosím
##rë
blogs
skaičius
nabízí
маңызды
endnu
gradu
##ช
157
விட்டு
hitam
ayrı
situ
경우에는
kutokana
crianças
Anjeunna
##льно
svůj
rasmi
cable
өмір
промени
লাগে
Somalia
tablo
##SE
##uj
ediyor
##eanna
একই
musica
palabras
ہونا
##ներով
gav
alami
Fred
ඉදිරිපත්
##ими
conteúdo
Oracle
involved
Nice
الجديد
daban
skrive
début
état
##ś
##ತ್ತು
tầng
அங்கு
antal
euch
ಕೇಂದ್ರ
studi
kurs
##ular
khas
feliz
ప్రస్తుతం
வி
soli
Sales
minimal
Girls
başladı
##onal
ბევრი
ਅਨੁਸਾਰ
##ました
onderzoek
moitos
202
##ਜ਼
cache
১০
ขนาด
השנה
pressure
zdjęć
Tân
wiwit
Praesent
Satu
##ür
memory
##cus
Президент
##רת
Norte
መሆኑን
basic
оған
pronto
அல்ல
##ற
MO
eseye
1927
Ñç
##ட்டு
natürlich
damage
matul
çend
brzo
##vus
Rahmen
Austria
ero
##riya
pictures
sette
fronte
##PA
TA
agree
akụkụ
ਜੇਕਰ
joale
ਆਪ
upravo
reći
##له
समर्थन
കഴിയും
берет
trời
సంస్థ
tratamento
Bayern
ಗಳು
gemaak
सात
நேரத்தில்
anmeldelse
आकार
वेळी
Tamén
usado
skupina
đêm
creative
Dieser
##તો
ert
##گان
##tó
обязательно
médico
Senk
المللی
##нее
संपर्क
পাঁচ
Ati
хоол
berjaya
هست
அடுத்த
vengono
sisse
Rais
dignissim
Yi
Diana
tengok
keladi
үнэ
myndi
প্রয়োজন
millioner
costa
##igo
##usta
mother
ну
പ്രധാന
ໃຊ້
Rev
pwen
শেখ
अवस्था
septiembre
previous
##ेको
heard
טיפול
બી
өзінің
zeuden
двете
Claude
स्वत
خاصة
##ತು
solu
orin
प्रहरीले
##өн
maklumat
svojich
##inio
tapos
всю
جائیں
##ets
امریکہ
##tone
Comedy
बदल
eneste
ትንሽ
кілька
práci
suchen
##yna
ծառայության
манай
##zin
yemwe
କାମ
त्याचा
RE
sabihin
Uganda
##ៗ
##ance
kuchukua
pantalla
##тель
zgodę
##lgan
##ří
Qualität
سعودی
центр
فون
hogyan
amata
tuta
Kay
समान
Kennedy
direito
تعليقات
téma
رکھنے
ફરીથી
jaro
##roq
jeune
Veja
##rse
buena
പക്ഷേ
gana
كەلگەن
στιγμή
devan
jede
iko
rus
ЕС
blogspot
ಕುರಿತು
susu
película
жатыр
##יב
لبنان
manu
quoi
місце
NG
ది
tonga
Сегодня
стране
##ům
době
technique
##vimas
kulawarga
celular
Base
avril
مربع
kiek
հնարավոր
##lisi
мая
नगर
##ló
بولدى
んで
բարձր
riktigt
##ае
Dog
mobi
##imas
Dean
Sorry
إدارة
hluti
дете
شریف
Wil
Novi
effort
například
##ගත
##pur
kısa
valmis
Tip
juurde
velika
oi
lệ
investment
Maecenas
Myanmar
requirements
روابط
Ndi
ಹಿಂದೆ
प्रकाश
endrika
##ост
libros
Cooper
kanaka
pembangunan
بس
mieste
Philip
dës
kí
пат
wifi
kundi
Dollar
##્ય
услуг
economic
ناھايىتى
Möglichkeit
tulisan
រូប
mengikuti
islam
flat
pèmèt
многие
##weza
작은
dura
azienda
thủy
xente
Xem
ubytování
Lyon
معلوم
Lawrence
góp
ಅಂಚೆ
працы
Maps
##ଛି
inspiration
Hər
butang
guna
UP
região
##ंचे
##zes
lenne
idadi
became
##logie
అవకాశం
Boys
##നും
matokeo
##었다
niitä
מערכת
étaient
боку
stjerner
हत्या
2nd
sole
##ланган
każ
traitement
некој
##logi
Philadelphia
დრო
кабыл
پنهنجي
رات
Yan
Fitness
zatim
ಅನುವಾದ
Woche
capacidade
dress
ellu
якіх
mutum
կան
mesi
Mkuu
##fs
##こと
Look
کن
slag
sujet
##lika
ಮತ್ತೆ
##зы
агар
blanc
ərzində
semanas
aktivnosti
тарабынан
Sou
필요한
##ər
आएका
свої
dalis
##jās
saison
##ელი
самом
ڈاؤن
tarif
ага
त्याने
Money
instrument
Esse
fill
##YA
שאתה
budu
barna
layar
enquanto
hanyuma
hop
mic
concert
TIME
serão
Johan
ਸਾਡੇ
##sé
ಇತರ
##лт
Taman
##eit
##ଟ
zemlje
età
lavil
primul
##ované
àm
##رى
دیتے
Όταν
बन
humanos
Abdullah
##ット
питання
hona
kuvat
tredje
Әгәр
Superior
kleur
Easy
longa
yu
đông
miaraka
Solutions
eux
dè
fhéidir
aver
կլինի
atrás
ຮັບ
echte
instagram
kiasi
એટલે
उल्लेख
##լ
##KO
crisis
##ric
studie
##oak
fontos
разных
කළේ
##av
sebagian
hommes
самым
друго
vidas
vé
##чный
पर्ने
ଭଳି
ard
Trading
klubu
dipilih
بېرىدۇ
Ice
нього
Roy
##डे
tembung
##jne
دکتر
བྱ
##leme
одну
نئی
espace
keuntungan
নিতে
Memorial
mann
ඉහළ
جاتے
##lijke
sollten
##czne
मार्ग
происходит
agba
nærheden
көптеген
cursos
חברת
ĉiam
pouvwa
നമ്മുടെ
Episode
ghi
tloha
ନିଶ୍ଚିତ
dry
imagem
##bach
хууль
Châu
gar
støtte
reo
عالم
uporablja
Evans
chiều
գլխավոր
lunch
Islands
unig
##பி
უფასო
Stand
bhios
##mate
Private
godinu
nyoba
##ION
##ною
meðan
sartu
регистрации
ụfọdụ
##zel
##வி
perchè
razem
nitori
Sierra
χώρα
##ದ್ದು
##iana
##러
ହୁଏ
ώρα
Hat
cilvēku
හි
ngân
##력
הזמן
Hunter
##ches
Orlando
kính
##vima
تنظیم
maiores
##amente
วันที่
njihove
##Л
نئے
ཡིག
labore
##বে
##વું
Juventus
176
nostres
অন্যান্য
priklauso
мл
diyar
Credit
درمیان
##ლებს
huru
##ቶ
##form
دیں
ന്നു
Iz
вересня
##ਜ
huge
Kot
지금
wife
faʻamatalaga
luath
sources
##০
pemimpin
Nii
Musa
##كَ
محسوس
случај
thiếu
hawa
Quan
eyni
dobiti
kennen
kies
بہترین
שעות
đô
##ներում
##īgu
ვინც
Haut
mees
octubre
taba
kādu
##lsen
interne
witte
Ukraine
mumwe
როგორიცაა
chwazi
المنطقة
212
своје
##gwa
אביב
Στοκ
უკვე
##ాడు
novu
Escola
##rma
kaysa
საფოსტო
Spain
cinnte
growing
ক্
Francesco
Få
kemungkinan
##zuje
##ಿಸಲು
##rica
କରିବ
fana
الشيخ
Attribution
ūdens
##தி
قايتا
LINE
##לת
##тов
UNESCO
העיר
Frauen
maranéhna
economia
##্ট
bhfeidhm
nemá
číslo
rekord
கொள்ள
Την
pukul
moving
Middle
classic
नाव
André
váš
##аць
##ሮ
maeneo
##yti
jus
##škai
ئىچىگە
tiket
association
Pay
##rira
activity
##வர்கள்
gỗ
##ሎች
greu
ವೇಳೆ
kunjalo
Hrvatske
অংশ
Тя
hodin
Там
क्षमता
##ɔ
Nå
difficile
कार
##pha
مسلم
രണ്ടു
##бу
ჯერ
pels
skupaj
එකතු
egter
yüzde
rates
##체
Kristo
Challenge
##വ്
لو
ਪੁਲਿਸ
кез
இன்
وضعیت
ନୂତନ
##ność
شدید
equipe
##phi
crime
ਮੌਕੇ
ໂດຍ
ሳይሆን
slika
městě
محیط
ધ્યાન
ಪುಟ
Dream
##šti
sold
હજી
berkenaan
قانونی
പ്രസിഡന്റ്
##rno
1905
##वत
370
alls
nouveaux
edilmiş
ਤਰਾਂ
##тә
সালের
164
txim
oral
chocolate
buru
agit
##වේ
tướng
Hyundai
girls
Moja
##vno
migliori
najmä
##bere
ပါ
kouri
haha
##ут
ଯାହାକି
ڈاکٹر
قطر
పేరు
##हरुको
yapan
Phasellus
храна
ngata
Sean
branco
ունեցել
vanuit
bandar
დაახლოებით
dark
opinión
voice
тих
kursus
mál
عالی
##TV
lisäksi
Index
Andreas
નો
berhasil
mật
RD
efforts
тез
bani
tätä
##CA
Rob
kundër
Tagged
pisanan
malosi
##၀
تعلیم
zarar
сезона
minim
NC
ayant
етеді
અમને
시간
Café
تومان
всей
plein
ئامېرىكا
давно
មុន
सध्या
trenutku
ال
182
qualche
##İ
##rto
повторно
lortu
##ತಿ
##nimo
पोलीस
رفتار
iako
##ಕೊಂಡು
можем
लेने
svou
Giovanni
ću
##sının
individuals
doet
##йки
esempio
Ole
төрийн
zurück
kans
etorri
многих
XVIII
2030
##جي
##ssi
comentando
пов
Deluxe
##zki
tags
તેમજ
##ću
PS4
боловч
manfaat
പേര്
grupp
Wasser
există
chinhu
дагуу
##jus
کال
בתחום
அதில்
##ining
درد
Arte
demo
##വ
НАТО
выше
##ಯು
Roll
punkt
প্রকাশ
منه
modelos
בהם
ASV
##յանի
igra
hita
ачык
kredi
FB
yardım
##дээ
ponto
এবার
ер
ठिकाणी
المملكة
Division
berkaitan
##zó
zeigt
duka
poprzez
ནང
kuyo
fún
allemaal
##ട്
Aaron
अध्ययन
поле
있고
دولة
maintenant
فضای
##awa
Dumnezeu
169
ផង
beschikbaar
Level
roulette
phản
agen
dàng
1916
gestion
##στε
ales
dirinya
Mill
egindako
##సీ
Setiap
kemampuan
prawa
ఇప్పటికే
امید
થશે
ಯಾವ
iedereen
fà
Когато
##வ
##sak
trano
Бога
edildi
κάτω
Irak
Çin
diversas
sayo
##कै
Nghymru
Carter
Peru
رسد
Ndipo
##CO
##বি
##ओ
##чак
narsa
raja
abil
ឃើញ
revista
began
sosai
культуры
indien
##iske
kunci
Mate
##nosť
dues
##liyi
байв
kuwo
ηλεκτρονικού
zat
אלו
vaovao
Colombia
στοκ
##उन
ஆகும்
کابل
direktor
სამსახურის
mən
govori
نفت
કરવાનું
Ron
##zera
mukana
Jehovha
Active
##GO
ig
##ಾಗಿ
##sos
iaculis
challenge
Rachel
स्थापना
achter
controle
families
sako
hiểm
դրա
بىزنىڭ
kesi
dijî
sicurezza
erfahren
musically
Billy
istwa
terletak
marked
ಇನ್ನೂ
प्रथम
ketë
დან
সমস্যা
huku
muter
canal
aua
devant
Tutti
మాత్రం
Emily
måte
##ოს
obstante
ಕಾರಣ
ਆਮ
norma
parehong
vốn
байлаа
Mata
Ty
##ದ್ದ
деятельности
Polis
piscina
skupiny
arụ
pack
март
meminta
сая
علاوه
sentir
différents
República
Pred
selles
でお
##lelo
##데
description
kupu
систему
##ང
sifat
ആദ്യ
ከዚህ
असताना
Hvad
##adas
consulta
babban
estan
natur
אותי
zmiany
Building
sagde
অভিযোগ
umntu
output
татар
allir
اﻹعلان
प्रस्ताव
zowel
##lanan
ಕಳೆದ
naprawdę
និយាយ
nekuti
##கிறது
##सा
Gallery
queste
##ческого
ない
אויב
म्हणाले
мамлекеттик
erst
membuka
ಅನೇಕ
##Ö
##чные
Seperti
сети
##jące
Number
بغیر
grutte
quote
Performance
necha
Baada
mabadiliko
አለ
pintu
stav
Trang
цены
төрлийн
chồng
Smartphone
##ரின்
వచ్చిన
##shëm
##ბის
gall
Lite
utk
maca
##bara
obodo
quase
داستان
blizini
oameni
પોતાની
helemaal
darauf
##zik
178
küll
ചേര്
studies
خواب
района
thấp
##lai
##성을
##нат
##āciju
eina
##ਿਤ
Dunia
מער
octobre
části
dess
##نت
##들을
رسانه
निर्वाचन
tức
যাচ্ছে
одно
рекао
manaʻomia
సాధారణ
ëmmer
##ще
yardımcı
##ése
vendita
tặng
##teur
nao
dot
absolut
nəticələri
statement
develop
التجارية
##ນີ້
Türkiyə
להגיע
effects
Fusce
ఉందని
dink
##handa
Pulau
talab
tekanan
seachad
čase
##utu
##vanie
package
##νες
gula
morali
nëmmen
veri
vozila
आनंद
możemy
horrek
རྒྱུ
##lice
kulo
Hunyo
vice
##انو
đáp
explica
##ık
باقی
आपकी
utilizando
##jna
mō
পাওয়া
177
ເທດ
Phòng
##яти
जाऊ
Mega
dole
##ческой
गांधी
ចាប់
यात
designer
##ських
somos
##kg
##hara
رابطه
personnel
translation
eat
##ème
Regional
vende
LP
morgen
људи
მნიშვნელოვანი
##ort
##해야
juiste
##uko
افزود
fruit
iam
Waxa
safari
rapid
Dieses
эмне
tengo
expected
##win
tried
Mare
##zka
maybe
यांची
##cz
##ਆ
##лось
spor
aid
chyba
شوید
बाहेर
lider
propia
cev
તેમાં
##czy
ജില്ലാ
караганда
membros
ажлын
enkulu
elde
##ess
##ছেন
diha
theme
1080
یه
односно
inga
context
Help
آزادی
თამაშის
340
mandi
дава
которую
jien
fanmi
ontvang
correct
kotak
njerëzit
ਗੁਰੂ
##ว
море
remove
сезон
desktop
पहली
koskaan
##wazi
Путин
Alberto
диде
जातो
##سی
##ٌ
##cov
हामीले
εν
została
Arabia
සම්බන්ධ
Philippines
BREAK
Σεπτεμβρίου
none
kuj
jenë
ایمیل
devices
##질
911
ей
tatt
##گاه
korte
malaking
##tr
использования
ຢ່າງ
mkono
muhim
znajduje
ситуации
দলের
administration
##tear
ነገሮች
produksi
آنے
##WA
màn
cân
##ာ
नीचे
تاکہ
Comments
propria
Work
Missouri
ROM
ሌላ
nbsp
ipa
शकतो
Александр
получения
zvakare
##rou
متعدد
preciso
hakan
masz
pib
Derfor
##տի
hauek
hiria
##ingar
начала
などの
misma
nën
евро
##യുള്ള
ដ៏
Iowa
текот
##์
##jene
171
pesa
problemer
sweet
HTTP
Sistema
ৰা
##ёт
##оор
##ക്കുന്ന
দেশে
વખતે
Belə
hadlay
2D
Cisco
دیکھا
argument
fanm
##ுவது
مال
vašem
navê
poto
##úla
farið
##iji
trách
મળે
##sida
Тут
давлат
zároveň
meste
sofa
167
Hrvatskoj
rom
туку
работать
Lanka
gone
Advanced
Buna
Neil
மற்ற
чыгып
уақыт
responsible
ALL
hebat
igre
এসব
APP
تھیں
게임
mostrar
زیرا
##ંગ
1300
lạnh
модель
Nederlandse
doctor
##чку
Cover
ಅಮೇರಿಕಾದ
दरम्यान
dinja
Content
sahibi
སྤེལ
እናም
ажиллаж
நிலை
##ика
tô
rules
նշել
سوف
בצורה
Ab
zostanie
Imana
##әр
جوان
##DO
##mp
famiglia
проблемы
වෙනවා
مَنْ
gagal
Mungkin
Sementara
osim
baja
comida
nagyobb
সেখানে
تمامی
##ε
##יד
недели
menurut
чадахгүй
لَهُ
connect
traffic
Roberts
nối
updated
reka
ပါတယ်
tienes
Hitler
együtt
##ឆ្នាំ
Where
pomeni
società
nyaman
Jerry
Onye
Shanghai
personen
Studios
Più
##્યો
nais
osi
Ottawa
fosse
نمایید
##ಸಲು
norte
ndege
සිටි
favorit
nằm
Margaret
##aran
ovih
Io
வைத்து
svého
ЕУ
Elena
белгілі
ຕໍ່
ичинде
166
மாவட்ட
lakin
semplice
##aux
gre
##uf
terima
Þar
eerder
تقریبا
290
##cem
નાના
internal
dianggap
sicher
један
Եվ
Али
pakaian
ყოველთვის
tradicional
Mostra
tõttu
##פ
ski
أمام
kubera
последните
szükséges
##ім
ҳама
SRL
دارید
вашиот
dda
##って
rekla
ahayd
Carlo
ხშირად
มี
பெண்
teste
Засгийн
कर्मचारी
fly
##hem
учурда
ছোট
تجارت
Muri
##gur
drink
##ଥିଲେ
комплекс
##점
##던
истории
mikir
طی
эрүүл
Биз
завжди
significant
##èn
Tuesday
રહ્યું
Cé
Bwana
Castro
##vien
vy
undan
##ям
income
kumpulan
310
değildir
rencana
اکثر
##ීය
quien
šios
দেওয়া
deo
características
eten
ganske
demand
ldi
امنیت
deyə
môn
Heb
අවසන්
##skap
результате
Bernard
kotoryya
nqi
##inti
آقای
በኩል
ervoor
Шумо
nghiên
अर्को
Voir
bid
будуць
않고
##ngar
ataupun
opinion
Bandung
##anja
##тели
কাম
kwakhe
parce
kahe
##אל
finally
Val
נוסף
problème
nevar
Official
wasn
ʻē
алдын
asnjë
ajoute
##mwe
གྱིས
отношение
قومی
##íocht
insieme
Qarabağ
হি
##rant
También
sp
տարվա
Seiten
Maya
milyen
حذف
##ış
हात
excelente
##lee
Electric
teams
##enti
مما
lokho
ამბობს
некалькі
dènye
వివిధ
xwb
##Ä
कुराहरू
Geschichte
physical
allo
blu
Να
izatea
കൂടുതല്
opening
##ਪ
gratuito
vše
bolup
isaga
bermanfaat
IC
თუმცა
شرح
Эдгээр
TAG
ieri
budak
يَا
ਪਿੰਡ
Links
Choice
settings
##ങ്ങളുടെ
Event
trai
Integrasi
PO
satın
ເຮັດ
caixa
ÑÄÑsÑÄ
##ине
##wali
nuevas
##eun
Sekolah
सिर्फ
możliwość
##sation
##erna
Нью
##LL
მცირე
सुविधा
tenho
alamat
letu
ಇಂದು
Qeyd
името
kop
##ाई
raison
Mutta
##rende
ਉਹਨਾਂ
đau
тело
equipos
tenaga
ಆಟದ
Hej
##ume
있을
tók
करेंगे
##сіз
Banyak
babu
kely
मात्रै
іншых
አሉ
ကျွန်တော်တို့
##რა
ਚਾਹੀਦਾ
weather
autour
vērā
бүхий
##ره
ഉണ്ട്
código
##ූ
अतिरिक्त
करीत
Cache
Janeiro
##لىقى
Sr
##data
prime
երկրի
участь
Nasional
scias
edelleen
Hugo
İran
цих
gemacht
kaart
apoi
تحریک
Fan
numbers
sortu
Íslands
meglio
##වීම
වාර්තා
কৰক
संबंध
ನೀರು
infantil
знак
massage
fenêtre
##stein
Србија
##yny
Fr
अस्पताल
përfshirë
སྲིད
##টো
##ફ
hoi
११
keresztül
##цію
travers
travaux
##уваат
مجاني
planet
okviru
##чні
bekannt
ազգային
দেখে
meunang
ordine
команда
sanya
Donna
tekið
खाली
تعلق
işi
##ҳ
ආහාර
##န်
gerir
##ones
##のが
świecie
כמעט
waktos
Tomēr
toliau
##tom
svojej
ogmante
kaping
לאַגער
лечения
levar
haver
xarici
SAD
bestaan
ngumu
gratuita
risco
vastaan
Popular
welcome
mä
duha
ವಿಳಾಸಕ್ಕೆ
dinheiro
##ባ
síðustu
Cal
##തു
direksyon
inferior
پارٹی
జరిగిన
Zero
bën
receber
##ೊಂದಿಗೆ
කරනවා
klanten
kafa
##વામાં
તમારે
##වලට
interna
daļa
விளையாட்டு
##린
pertsona
അതിന്റെ
mālama
##물
formación
نمونه
बड़ा
xo
taman
ಬಾರಿ
arís
ihm
dən
совсем
Kristus
sob
teško
නිර්මාණය
भाजपा
##ሳ
batas
ravishda
##ラ
terasa
نزدیک
omume
книга
ATM
אן
מדי
نسخه
കോണ്
nuevos
##ення
රටේ
اقتصاد
pertandingan
kasnije
koho
trebalo
spend
ດີ
своїх
Татарстан
235
عرضه
alternativa
Trần
ئۈچ
##sında
செய்யும்
Telegram
##ží
Фото
##seen
tháinig
кожата
carro
Pat
varsa
wieku
පළමු
gevolg
aprender
éigin
Ці
мумкин
niekoľko
דקות
میڈیا
месяц
##ać
Historia
crise
##בר
imagen
##ровать
##kit
duo
##형
esetén
ទឹក
айтты
Rumah
fasil
athari
مكان
bons
alveg
Graham
anefa
जातात
wonderful
Manila
yapmak
savā
##ojë
доранд
Phil
អ្វី
gilt
nông
ياردەم
यासाठी
medan
ಜಿಲ್ಲಾ
paydo
पक्ष
colors
ئىلگىرى
##ದರು
vodu
debido
saying
رفع
labing
えば
bepaalde
flimkien
ଦ୍
август
pangunahing
visiem
##ப்பை
હાથ
Industrial
मागणी
Produk
##kati
Urban
##cích
##rai
स्थापित
розвитку
aofia
##kes
batez
endereço
estás
kertas
Šta
док
Shah
обов
форме
आपले
nehmen
нашего
তিন
fikir
originale
ezen
tamaiti
دىن
Menu
mã
откако
taxa
संघ
sạch
billion
##בי
txiav
Tre
кол
septembrie
swój
résultats
Šī
hāʻawi
máa
komanda
zem
txt
libri
##нки
##dale
تعریف
euskal
meem
فنادق
đào
माग
הבית
största
қарай
orain
##вого
gått
ayam
towards
pago
206
inklusive
Match
##wym
ልጅ
उद्योग
NI
strategy
tällä
sue
සම්බන්ධයෙන්
##tter
owner
további
туура
якому
PLUS
кв
CBD
ipak
##ուն
Trend
copii
Uber
orders
1911
##σης
188
Bin
publik
bieži
ວັນ
poster
##ovali
##jums
rake
ehk
idade
##ష్
audience
zase
πληρωμής
blok
سي
Stefan
##gado
##uza
dìreach
заказа
Hope
##tā
volledig
ພວກ
otomatis
вашата
محفوظ
dalan
ampak
cene
##tine
modèl
이후
##ote
אולי
شمار
##вая
gjelder
ಮುಖ್ಯ
thử
밝혔다
મોટી
dollars
возможности
रोग
bliana
besteht
upload
Республикасы
Kang
aime
##وی
##ningar
sauti
மேல்
दिनों
اسان
پوری
hins
spent
perfekte
clase
##সম
dwóch
##mizi
рамките
comunidade
الوصول
notice
වඩාත්
септември
ಅಂಕಿಯ
einverstanden
lots
ansvar
måneder
سبتمبر
mỹ
##haus
කළා
Rick
##િયા
vsi
тағы
लहान
sanajan
obere
Ciebie
passion
trek
moute
##ады
##ivi
kekuatan
donner
przetwarzania
##लं
نوشته
amore
maalum
président
##개
izateko
bunday
sende
##sc
Article
فایل
किन
ساله
handia
hjælp
Með
benshi
Cyngor
proq
значение
onları
##juma
מנת
anatin
takip
##որ
tuto
podcast
lässt
Jeho
වසර
Aquesta
ساخته
rezilta
Nancy
##gara
txawv
مقصد
Táto
شوې
ön
##ged
independent
##rija
nimo
Warren
Vilniaus
ਬਾਹਰ
##rul
vao
Vitamin
##관
tutta
outdoor
difference
damu
##дән
findet
сар
ಆಟ
Hòa
##stand
әле
##sana
##lane
roimhe
Gracias
##ләрен
##ଲେ
dizer
##ವೇ
wang
ilia
Irish
##вен
##ения
legyen
wɔ
##hale
خارجی
परिवर्तन
свого
##нән
##ân
これは
rs
osobních
సందర్భంగా
alternativ
일부
همیشه
steder
Lisaks
skupine
خواتین
እንኳን
##ມ
जिसे
khỏi
esimerkiksi
доставки
jeux
ποτέ
pierwszy
Aquí
##ներն
workshop
албан
##யே
značky
Australian
208
diberi
येईल
teada
днес
##တ်
Stati
Minden
Catherine
Що
ඒක
##いう
হাত
बाजार
bose
miejsca
yeniden
##скі
Thiết
destino
edəcək
मेरा
Front
imidlertid
espero
modal
viv
persoane
linea
Prezident
fortsatt
ዋና
خدمة
Af
##tage
dấu
Teatro
בתוך
kapital
##ому
##рга
kultur
endriky
##heim
fez
sellele
क्रममा
##кого
ಸ್ಥಳೀಯ
partea
##ৰ্
fhèin
starten
hicho
süre
ਵਿਖੇ
метавонад
##eron
##ável
##ує
faʻailoga
ଠାରୁ
atọ
Всички
vitit
হাতে
ഞങ്ങൾ
дарга
soort
Hamburg
קשר
طالبان
##jis
switch
داسې
Srbija
Pod
ઓનલાઇન
akwai
Ông
suku
werkt
hatine
Rafael
ราคา
கே
##koli
##עה
Congress
стать
tenha
coma
магазина
tombol
ລາວ
Tüm
Mina
successful
oti
ترقی
berê
largest
кожи
kanjani
Hva
##சன்
сен
JA
##āt
ལོ
бұрын
ມັນ
##ires
ଗ୍ରହଣ
informe
##čan
каля
terdiri
tager
##ење
هنگام
ularni
Apabila
sư
sampun
всяка
edit
ਪ੍ਰਾਪਤ
ficar
Customer
करीब
TD
##ось
партия
dobře
##ālā
त्यानंतर
##차
карап
Također
memerlukan
aturan
developed
ஏன்
kleinen
##but
ditingkat
ఆర్
Ubuntu
##단
taruhan
##സി
gamla
Cameron
Uni
janvier
artık
hab
Alfred
наше
সুযোগ
Josh
месеци
కేవలం
##ttiin
##لاپ
približno
vọng
terkait
##யம்
అలాగే
porno
гар
ქალაქში
ngarep
hotely
king
Buenos
Table
ਦੁਆਰਾ
отново
النظام
stellt
pista
numa
Children
मोबाइल
ταχυδρομείου
##லும்
doba
finnes
svega
さんの
alaye
استاد
##чних
লে
კარგად
റിപ്പോര്
мешаванд
Trail
##ಪ್ಪ
Aj
diperlukan
مراسم
даде
##ଛନ୍ତି
farany
naanị
pune
તૈયાર
Polo
Each
براي
नये
roj
Ular
##kot
Сондықтан
Mgbe
الصفحة
kỷ
դրանք
##ovou
České
##jak
leg
sehat
பகுதியில்
jagħmlu
Sandra
stå
##bol
kishin
ಸಂದರ್ಭದಲ್ಲಿ
bitcoin
PH
সামনে
vacances
Tools
Hãy
##cə
ଆମ
sata
##uye
նկատմամբ
174
Baker
सहभागी
kamili
ვარ
##isha
veoma
knjige
##āja
##سىز
Axmed
պատճառով
terkenal
pequeno
##தை
saken
kaga
activités
Hvordan
matumizi
copyright
ਸਾਹਿਬ
whakahaere
Col
strana
Thursday
##uba
##τητα
مۇھىم
ጉዳይ
8000
typer
сили
باش
hittar
ಮುಂದೆ
নির্বাচন
зависимости
العديد
222
rasti
ವರ್ಷ
telefono
trans
সাহায্য
имаше
unsur
Abril
inkişaf
stres
##ес
թվականին
##вся
Erdoğan
قارشى
304
aeg
lugha
stoc
##னி
እኛ
అర్థం
هوتل
##كا
muundo
потоа
mağazaları
បន្ត
Dame
такая
systeem
erum
utilizzare
tswj
번째
##ന്റെ
neka
Иван
Спасибо
njegovo
problémy
JE
vî
ruimte
##tari
##ෙහි
##ovej
έχουμε
seoladh
larawan
عامل
مشخص
import
אַלע
##فة
gida
Aan
voltak
reja
phambili
وما
miejscu
aucun
arti
Tad
Valsts
Glass
tota
##m2
amour
campus
láti
##ఎస్
ikut
الأمريكية
bebe
biraz
173
##eadh
##ћа
rural
sería
iné
##বার
árum
  
PlayStation
الحياة
##āla
##pet
бірінші
listed
مواقع
nkan
Bangladesh
සිය
יחד
Italie
##നു
##амі
selamat
adlaw
Mobil
በተጨማሪም
nových
שימוש
globale
##ຍ
tzv
TS
Nguyên
разом
notiek
##ať
شکست
અસર
článku
##ान
ହେଲେ
своя
##ваат
vidjeti
gange
nő
characters
orange
səbəb
Robinson
Está
##ρες
erbjuder
##েল
đỏ
waardoor
GA
businesses
podjetja
ошондой
##юцца
klo
Disyembre
dalších
ჩანს
našim
தமிழக
liy
Tsis
થયું
##uit
доставка
çfarë
Beberapa
##isht
dünyanın
##lẹ
rakan
पिता
loved
tshuaj
##miento
##க்கள்
будуть
svojho
వ్యక్తి
দি
fia
Wolf
რომლის
سولې
hitz
wasan
##শন
gadus
##ীয়
ਪਤਾ
کردار
чыккан
perangkat
considered
ave
BOLD
ábhar
Gas
fueron
gynnwys
نحو
орган
tungod
전체
بیا
Every
##ље
ие
720p
tarjoaa
assez
líder
cheart
selection
##tani
MBA
adịghị
Justice
ۋاقىت
##zet
##់
سپس
##ோம்
##ਗ
здоров
creo
ಮೊದಲು
가능한
##انی
χρήσης
fee
pacientes
Jako
RC
cousas
##hay
Вони
##band
fees
jiné
beynəlxalq
ماشین
dien
крајот
##անում
معروف
##owo
##yana
Chương
സമയം
ganin
karon
##වත්
ikon
ఇలా
hátt
këtu
kọ
vẻ
mataas
Hè
##ίου
bestelling
##실
lakhe
##usa
ספר
Minuten
##ለ
בגלל
sagen
##़
কাৰ
##цыя
##kis
salt
kalangan
ਪਾਰਟੀ
حصہ
##েই
kok
atveju
práva
##ख
булды
izvo
वास्तव
##fra
siamo
exactly
Afrikaanse
İlham
жардам
imel
ఒకటి
superficie
соответствии
##ший
самые
##дык
ayuda
##כן
Speed
##των
เดือน
populer
kuda
daju
Jetzt
CI
Polska
XIII
осіб
Gusto
jednym
ឡើយ
perkhidmatan
види
གཉིས
línea
dgn
hấp
とか
##jící
vsak
حسب
##ներից
problemen
प्रभावित
Beliau
נגד
কোড
##ști
ល្អ
اینجا
dola
Lenovo
akses
Frage
ошол
ըստ
español
yes
अनि
##лат
الدولية
Mun
mulheres
বছরের
prior
מדובר
kyk
beni
glavni
nalang
##્ડ
Franklin
179
эта
ирсэн
zakresie
##קים
Philippe
ਵਾਲਾ
vandens
##වට
Барои
सह
характер
nowe
##TI
nedeniyle
makemake
koop
bác
teilen
Например
byd
घेतला
формы
##lde
jashtë
marcas
comunicación
gegnum
maksimum
mín
освен
path
জেলা
uzi
aproape
লগতে
##zing
جنوبی
الشركات
##ရန်
204
menuju
italiana
203
алған
vou
մարդիկ
##ου
πρόγραμμα
Wednesday
dea
listing
handler
##ლს
halen
れた
woord
Waxay
##யுடன்
mbalimbali
तयारी
##ór
esas
thjesht
naudoti
देखि
gjë
reducir
විශේෂ
##care
kāu
காரணமாக
Leonardo
##bak
Living
נכון
umožňuje
यावेळी
Taiwan
##kset
محبت
dalej
##ሮች
अमेरिकी
lula
Danny
maat
Coffee
regalo
ಎನ್
każdego
##kali
pantai
Yana
võtta
آماده
Tennessee
pais
Executive
Lakin
BY
estus
यसको
##વો
Sebastian
sexy
##chu
Hata
éxito
Tumblr
termos
Valencia
からの
##жу
vasta
baixa
Beth
##ौ
పోలీసులు
bua
ntseeg
MR
##iadau
βάση
دولار
amihang
disease
لدينا
అక్కడ
##ઈ
voyage
կապված
народа
##tul
období
dobré
Jobs
jaki
blandt
##чная
hadda
##شان
आम
mahimo
nghề
Wisconsin
##ării
myn
klasik
Theatre
filmi
ອາ
nire
འདུག
erfolgt
прямо
არც
athrú
ове
aktiviteter
ŝia
cards
jezik
Мне
Dé
##gie
બીજી
nadat
fynd
കി
bize
धर्म
##τά
played
definitely
penerbangan
تازه
средство
apud
czym
##ingu
serait
Xi
##た
##dana
berubah
авто
##යින්
مباشرة
gab
طبیعی
ulit
դեռ
സെക്രട്ടറി
されています
Inhalte
vogël
##יש
tygodniu
사용자
Poker
##bed
además
anar
состав
යම්
##kake
koli
πίσω
##बी
heim
Анын
##iche
최근
##sio
niyo
karar
svojoj
langer
хугацаанд
Quran
ئادەم
nghỉ
Pilipinas
karibuni
##ციის
##ţă
Dei
Wy
ចិន
Tämän
rəqəmli
bismo
liter
##mə
suq
izmantojot
holiday
belangrijk
जन्म
shown
шавад
##एको
outou
letih
voordat
##فت
1400
juillet
Stanley
hvilke
déanaí
buiten
##sam
vários
Hanya
1er
추가
γίνεται
##ール
##ета
informací
indica
yanında
beyond
##dae
siiski
없이
KE
locais
Есть
самого
##ēju
dende
##alt
वर्तमान
##رز
juhul
మనం
##κ
purposes
##lá
forces
##kazi
jafnvel
केलेल्या
##koj
##ада
##ലെ
##kwazi
кеткен
jednostavno
sporta
devem
heavy
العربي
דברים
middel
পারবেন
jolla
##āju
составляет
چار
Sei
fair
##laryň
හැක
##siga
bottom
رسید
##മ
nikada
Sunt
Số
সভাপতি
اضافہ
लागेको
Army
naša
mbụ
hankali
1908
Wright
uisce
କଥା
amis
kutha
είχαν
créer
thuận
##ności
материалы
উত্তর
Bảo
183
halka
Chỉ
qatt
magiging
##ذ
Spiel
hızlı
गंभीर
2562
cent
त्याची
sker
informāciju
funciona
Frankfurt
управления
##ેટ
ideje
آثار
txaus
ଦୁଇ
accident
kojeg
##ലും
దీంతో
chama
یقین
бит
daarom
രൂപ
##ein
råd
Stunden
ľudia
livell
##ונות
moments
Tar
187
##тно
lines
ಸೇರಿದಂತೆ
выбрать
João
##jal
Polisi
kasoo
Hola
নামে
цвета
felly
taille
masina
##vě
participants
ತುಂಬಾ
dena
гр
тъй
ίδια
Vintage
Budapest
##ческих
školy
dek
Bed
lẹ
parau
west
kanti
Stewart
ورود
earste
##óir
concernant
##miseen
याची
##yje
##pie
joy
програми
کړی
bayar
benefit
выбор
liiga
Cancel
française
சிறிய
wind
περίπου
سلامت
Erfahrung
saol
Extra
Ay
gärna
փոքր
നിരവധി
Ngati
قم
усе
##ಿಸುವ
хуб
болести
んだ
ذریعے
##ਬ
çeşitli
##isesti
##یک
##bon
राष्ट्रपति
##bt
метод
proper
##bou
##וס
vienmēr
різних
##bos
tyto
കര്
##öl
hartzen
##ູ
object
رود
##세
Princess
Four
Nyt
অথবা
##ոն
penduduk
##zem
पाटील
zdjęcia
einu
egne
dlatego
création
nambah
##ある
dance
паміж
suhu
최대
ṣiṣe
చిత్రం
sóc
ಪ್ರಮುಖ
Utara
உணவு
energije
TX
##лын
けて
spørgsmål
հայտարարել
πρώτο
189
edilməsi
arról
ઉપરાંત
ਸ਼ੁਰੂ
offerte
କରୁଛନ୍ତି
encuentra
második
ચાલુ
шта
numru
مقدار
Marcus
##ery
wanawake
##ான்
dinten
pelas
избор
mukuru
lē
образование
utile
konci
square
könnte
cast
##tuse
Romantic
Республикасының
##itä
kurį
sogar
najdete
rano
##రా
stabil
siguiente
Aus
bure
artículo
##of
lộ
विवरण
بأن
García
arrive
##దు
##ssen
aider
συνέχεια
מול
mondiale
দেন
Nepal
Cinema
ចិត្ត
төрле
වෙලා
achte
પ્રયાસ
ionad
faʻaalia
хүүхэд
tornar
##IC
##aria
##ides
ساده
хугацаа
પોલીસ
##ટી
prvom
اړه
iddo
બનાવવામાં
claim
##ግ
ប្រើ
پزشکی
गत
każdym
english
général
बताएका
##וי
있다고
Ond
pregunta
əsasən
Gel
karte
დავუკავშირდეთ
##ory
ukur
aren
Alabama
##dere
ihrem
recente
kanan
fint
Hilton
ganger
Products
##dai
Harvard
##вий
##rre
##ങ്
##скага
Campbell
##iques
azul
χώρο
vjet
##مىز
blijft
глава
zor
учраас
##kej
##في
dolazi
употреба
veren
såsom
المنتجات
Тие
darüber
әрі
मीडिया
geleden
nhớ
donya
##bka
پہلی
##ned
##זה
३०
પાણી
pulak
##ezi
principale
aż
##gle
##hkan
সম্পাদক
vidare
understanding
Очень
དགོས
##сез
livello
קצת
publicado
गीत
musique
marki
waarbij
##נד
Διαχείριση
darbības
##jt
vrouw
Photoshop
hrane
giác
##нски
Professor
zgody
Mustafa
desarrollo
tanya
Steam
hada
ktorej
7000
Instituto
Seit
contacto
visų
dado
##llen
वीडियो
saavad
Dj
##rde
وهذا
eksperyans
##ರಿಗೆ
gerade
голем
دينار
أبو
milik
msimu
ашиглах
##여
intr
KM
treści
денеска
qauv
విధంగా
holo
utente
ملاقات
сказать
പ്രത്യേക
σχέση
pur
آموزشی
Vision
uue
hain
Visual
VW
starter
ଅନୁଭବ
каждого
dor
தேசிய
پول
proyecto
града
Garcia
Kosovës
филм
کوچک
كتابة
tsuas
оларды
##лей
natif
hại
##자가
honen
##ях
أشهر
Moscow
maio
зам
كىشىلەر
ດຳ
leik
Conference
Tässä
XIV
आए
نواز
jemi
pertanyaan
Detroit
HS
sanés
Компания
группы
لاہور
##ின்
Lac
vrsta
altura
Fit
арнайы
##ST
त्यांचे
##తుంది
##ēšanas
##ئن
বলতে
tago
අදහස්
urma
jinis
pani
##vor
längre
##īs
Brooklyn
ла
##nska
ତଥା
wybodaeth
##ंत
Comme
Республикасынын
وو
περισσότερο
##kant
##izi
guy
stal
visą
jeans
tốc
destination
याचा
бештар
stars
жылғы
شان
ezinye
##ðir
##зі
##രി
mengikut
##צים
ସେମାନଙ୍କୁ
##ト
මුදල්
άλλη
oldin
##ોમાં
##गा
đứng
##יע
luego
##ekin
Thời
právě
oud
275
##zzjonijiet
بینی
Nicolas
이제
##ște
Oklahoma
Published
semangat
Malo
##ોને
работата
unggal
Rank
conjunto
करतो
qaar
indah
##ස
hərbi
fatt
mim
հայտնի
contains
яздыру
orðið
таки
Kemudian
འདི
данас
##liku
sep
noir
sung
probeer
Genom
whakaatu
menikmati
sean
Tani
##eritud
jual
tukang
безопасности
περισσότερα
operasyon
أحمد
manm
pliki
belli
Yamaha
iniciativa
negatif
Selangor
سو
almal
tube
##ਿ
liefde
بلکه
elas
##neet
activité
##nä
Коли
vissa
ħames
##dek
produse
Philips
##ਨਾ
isip
келип
setzen
koriste
##elijk
ÑâÑÑÑÄ
veci
तपाईं
##ుడు
Panel
produção
##یه
kaniya
happen
خواهند
##pos
ΚΑΙ
##ٹر
planeta
Marshall
choses
келет
dernière
momentos
Алматы
کرکے
bella
Praha
##rri
guerre
spiller
حالات
ate
sisih
മറ്റ്
Barra
ulici
vhodné
##ಟ
сада
handap
سرعت
##rali
Volgens
cabeza
##σεων
Tato
##landi
##und
suʻesuʻega
Kamera
üst
davlat
àrea
Zone
1700
ሆኖ
stap
foydalanish
എന്നു
metoda
Palm
Soomaaliyeed
Dịch
names
ಗಳನ್ನು
niste
metri
laro
wraz
oldukça
Jepang
elektronik
181
kwalunkwe
##jih
והוא
rana
другим
სამი
stanje
នៅលើ
présente
184
mesthi
syarat
はお
thảo
շուրջ
jangka
цієї
اقدامات
heat
Thaum
livraison
##dite
մարդկանց
ekzistas
ekri
Cari
##nske
##kir
Ṣe
teknoloji
hoge
prea
##stad
kichik
length
CF
push
کودکان
menulis
Hard
ஒருவர்
kijken
ondo
Esperanto
sollen
nwoke
rare
সকল
เวลา
##lerinde
nilang
associated
cd
wood
sevi
##แล้ว
पत्नी
Direct
negli
kachasị
Pendidikan
##ৰে
wajib
zrobić
dúinn
УИХ
garden
Images
madre
کمپنی
##သား
wants
fheàrr
mwezi
카지노
rere
समिति
mesaj
свій
àrd
fortfarande
Niba
##पासून
stk
कार्यक्रममा
Více
없다
Аммо
εικόνα
##дік
жени
بنت
라고
##тып
kide
secure
ಹೊಂದಿರುವ
ਲੈਣ
##grafia
Rom
iarracht
reports
kritik
##위
BR
mhòr
batla
xogo
Или
Bull
##jući
Srbiji
ਨਾਮ
נאָך
हाथ
మాకు
wiha
برد
properties
зрабіць
века
profiel
anfani
Raya
father
основе
compañía
પડે
##uja
Սա
Christus
долго
elə
Además
kws
alas
gai
##lica
dobili
##ີ
କିପରି
zvikuru
Paolo
gastos
rong
políticas
Lokhu
kanna
acaba
Ciidamada
##ines
किस
Украина
##wira
##plan
##ציה
modi
keçirilən
komplett
Leon
swoim
дена
সদস্য
alone
علاقے
##တို့
ovde
Deutsche
##pot
yaye
Таким
##льный
##ත්වය
kohdetta
AF
Lab
tien
ong
đảo
quddiem
##शन
shekara
##ıq
expect
##დება
malé
##чным
bëjnë
treball
चल
فيما
ყველაფერი
##றி
XML
നടത്തിയ
Mme
fé
그들은
##tho
городе
Ntabwo
útil
cải
पक्राउ
##ðar
えた
जान
citas
különböző
Gaming
کرسکتے
tenemos
Cam
שוב
ജെ
آخرین
இதன்
carbon
bersih
##ome
serveis
સમાન
Dublin
omgeving
खबर
പൊലീസ്
нинди
##ös
PL
օրը
samar
##лена
gunakan
1100
Ва
hotela
davon
##ավոր
ministre
sels
затем
##నం
서비스를
ఇక
##ани
schools
वटा
passo
##սի
Mijn
qala
##uya
Three
său
ഷം
Auswahl
δε
लक्षात
ظاہر
resep
grow
សែន
##ческие
جنهن
##되고
verbessern
menjadikan
vicino
boot
Zašto
ත්
lawe
##يف
دیتا
ekonomik
банка
##ization
sexa
による
වැදගත්
ụgwọ
##నా
invece
Corse
કરવો
кара
කෙසේ
2x
bliadhna
Kata
Cando
##rı
Photos
##aja
Ahmed
Novo
Grey
චිත්
Jesús
daleko
Iyi
અમારી
એવું
niên
történő
העבודה
##аж
सम्पन्न
##كي
##čných
করছেন
prezident
trova
ಸಚಿವ
Provincia
ypač
soko
Afghanistan
کراچی
نشده
Hilfe
bezonas
Micro
Chief
Books
ගමන්
aia
έχετε
perdagangan
wɔn
įmonių
Jana
vane
Više
##чне
##ेट
Sp
bestellen
Kings
sesi
Bosch
##нный
Republic
##ტები
svojom
pon
qualsevol
nasional
Dla
niaj
bánh
plate
xidmətləri
hilang
životu
dakbayan
tọn
reer
φορές
malapit
anna
variant
кардан
பெண்கள்
あり
corso
##ଡ୍
##rach
shughuli
mājas
svona
второй
явдал
employees
இதை
Teraz
##Éå
فوج
joissa
tránh
காலை
trovare
usia
cute
foot
политика
##려
cilj
iphone
2561
lega
vostru
imi
pesar
##čiti
lãnh
perioada
Friends
##nil
strona
Xasan
propias
nového
ntev
kiezen
jestem
проти
ibig
кількість
ubwo
இந்நிலையில்
struttura
мүмкіндік
Natur
obraz
ਜਾਵੇਗਾ
ئاز
thắng
кунад
##ение
Belediye
tusa
స్థానిక
berarti
spille
λίγο
इसकी
стан
kompleks
ìre
UI
tradisional
##gira
もう
ကျွန်တော်
##cą
##וב
Можно
tw
nigba
విడుదల
daging
##ছি
VM
ከዚያም
абсолютно
lafiya
édition
వచ్చింది
հայկական
dream
##rir
བྲིས
##ÄÑ
միջոցով
fakta
أنها
Pool
sizning
##동
गुणवत्ता
##for
túto
چهار
၁၀
ontvangen
sucesso
khởi
تصمیم
الإلكتروني
ixesha
299
Iraq
oka
laarin
##тарын
bērnu
prezzo
tih
ezek
Berg
pasaules
школе
jê
egitea
পড়ে
vrátane
সবচেয়ে
altså
сэтгэл
cyntaf
Immagini
அதற்கு
ნაწილი
Cela
steps
روشن
देखने
iniciar
navegador
fòm
Kõik
lorsque
Boris
பின்
dhuwit
##нәр
korban
gereken
우리의
##uwa
Mass
konsep
quais
Select
پوست
protect
Twoje
##రీ
شوی
##tivi
##vaný
ment
डी
buruk
##ható
شام
शिक्षण
قول
##чә
connection
শিক্ষা
cua
iwwert
##čení
##կի
жауап
список
khám
sjen
##dun
okolí
módon
הראשונה
buen
meil
derde
nejen
عملکرد
algúns
ചെറിയ
gahunda
ওপর
##τικών
mencoba
##τικού
ہمیشہ
добри
##dot
quelque
##achd
улам
ترتیب
niệm
##ėti
Можете
बच्चे
##zeit
նույն
لگتا
yakın
Jerusalem
роки
kusoma
ashtu
Gobolka
1907
बी
iespējas
قدر
##eye
##מון
##тап
ಪಿ
##মা
तेल
немного
Seu
کاربران
yawe
Espanya
khảo
ஜி
##හ
##ME
##šas
##ţa
kiểu
الدين
וועגן
болохгүй
verdad
offering
##وت
Sở
একটু
haute
##over
समूह
DSGVO
sạn
##ðum
мали
þessari
sain
##ñ
ætti
Wéi
ниже
##فر
kostenlos
Pet
dialog
BlogThis
մարդ
##ючи
hatt
##ប
Ph
klare
Beijing
பாதுகாப்பு
Berikut
##حة
dóibh
מכל
jaman
##নৰ
operator
Tengah
##ങ്ങളിൽ
prezzi
LAN
ഉള്
усіх
manga
Bí
##ต
রহমান
198
lantai
navbera
mura
##ībā
generale
kola
##bs
Anders
Location
rei
Battle
##ез
għas
##ፉ
Tại
သူတို့
manj
حالی
وكان
##തി
pilot
Tribunal
خصوص
Syria
فشار
φωτογραφίες
neniam
##wara
kiti
dažnai
##ப்பது
cocog
למרות
##देखि
καλά
немає
elegant
##hip
ተመሳሳይ
##nad
બનાવે
##וני
brought
sinulle
trust
sitter
Murray
საშუალო
katru
mogla
edək
მაგალითად
około
##ány
사람들이
elegante
pasien
informação
menyatakan
Giang
achat
عراق
lĩnh
##ización
danes
Petra
५०
##ynyň
interesante
##aeth
என்னை
##lir
ली
roimh
##kela
##ized
ਦਿੱਲੀ
##эл
آئے
Cliquez
முன்பு
مرحله
strand
##sts
##fica
awali
newid
jalur
история
zapravo
உடல்
कुल
eiusmod
evidence
wäre
సి
kelkaj
museum
imagine
##іі
används
##ዊ
belül
##kaan
scale
##iÉ
century
වීමට
maʻi
función
réseau
yine
records
Mohamed
город
край
технологии
त्याचे
związku
bafite
Tie
zakho
Shabaab
aikaa
##ních
பற்றிய
Beograd
إضافة
True
werger
nor
avete
partida
მრავალი
त्यांची
فوتبال
finalmente
##гон
##vä
wanaagsan
konnte
##óirí
તથા
എന്നിവ
##jumu
esmu
cesta
separate
nazo
همکاری
যার
nemokake
pulang
Moto
მიიღო
tebe
realidade
##dura
##light
soal
##bility
simba
محمود
pink
להשתמש
##ଲା
जिसके
##ног
##რს
اکنون
ପ୍ରତ୍ୟେକ
ប្រកួត
##12
duy
CSS
ilan
Cash
Ieškoti
##ாக
ለምሳሌ
કરવાનો
måske
dessous
malpli
толку
maten
##15
tliet
kāds
##�
संपूर्ण
yaptığı
opportunities
chans
tipe
sâu
##ος
thú
गएको
زده
ఎంత
changed
aspect
павінны
##вания
Lue
##larla
cambiar
##्ड
López
tiesiog
respecto
використання
medicina
Madankollu
roja
##kwe
acceptez
##်
зависит
meng
მთავარი
##금
അറിയിച്ചു
uvek
Его
ചെയ്യുന്നു
bapa
##eh
tenen
Αποστολή
മുതല്
türlü
conocer
Programa
بھر
##ांमध्ये
##lainen
sinun
##րի
##ಯಾಗಿ
bëhet
niego
Gud
niej
valè
dikkat
appel
ireny
moal
sige
इस्तेमाल
probable
##elen
325
እጅግ
Jerman
এতে
vài
thank
qayta
library
dager
umma
автор
193
reforma
##mada
##dna
207
vídeos
teléfono
##eann
states
latha
FOR
pembayaran
##zte
нельзя
##τών
goals
Бир
Ademais
##ությունների
аммо
bot
εκτός
##rei
humano
дотор
ಕೋಟಿ
##ফ
qualcosa
##ंड
ହୋଇଥିଲେ
رمضان
béda
##रे
Giấy
dao
طالب
reserva
Заев
tajā
ऐसी
интерес
ئېلان
lẹhin
chanje
##сэн
гурван
ခုနှစ်
nhạc
##jących
Eller
جامعة
Knight
бай
tuʻuina
Pärast
سفید
ʻAʻole
##borg
Kuma
##rm
kéo
##פן
төп
व्यापार
cı
##sika
በሙሉ
билдирди
sorangan
jābūt
false
semuanya
##zas
##ებული
postoje
thưởng
historii
Mens
кажа
ಇದೇ
нису
Focus
##зм
tabia
211
мисли
شعر
registered
Tree
##ىپ
jiray
ເຮົາ
##dou
usage
##დის
turned
tests
තීරණය
statt
فیصد
##oz
ਜਾਂਦੇ
##ّة
보기
Sim
Tun
aer
1906
হিসাবে
##ப்பட்டு
nærheten
perder
கலந்து
acord
مدیر
ήδη
##ไทย
сильно
##лған
인해
ਰਾਜ
مى
اظهار
Kent
భారీ
edición
என்றார்
זײ
##חה
foliga
Vancouver
maklik
lesen
##kli
tseo
##iros
είπε
yeeb
##ڊ
ટી
Ac
거의
Jong
suficiente
세계
अंतिम
waarde
Μοιραστείτε
yayin
comfortable
Laptop
selected
Kentucky
Դուք
නොවන
##ishi
پنجاب
usluge
જેથી
hát
manis
##లతో
##нных
ciągu
contenido
потребно
Rama
desenvolvimento
mpango
دوبارہ
##rli
##indo
Viņš
いします
должно
toj
##loa
ida
##zak
jum
ខ្មែរ
lòd
ቁጥር
cake
ವಿಶೇಷ
amandla
entra
सक्छ
ਸਿਰਫ
yilda
algum
##چى
dapatkan
ketiga
Secret
بھارت
ਜਾਰੀ
école
sets
regler
သူက
Lire
##bane
sec
કેમ
eolas
##ichean
Ezt
Utah
##ív
harakat
Vill
пас
fotografia
geral
afite
Tommy
discussion
பதிவு
aro
garanti
పేజీ
संगीत
muni
asing
##ില്
oznacza
effektiv
କରିଥାଏ
ուզում
المواد
маалымат
ota
تەرىپىدىن
világ
škola
dient
όλους
##τικές
közül
թույլ
##Kristu
##उने
pourquoi
우리가
teach
##اني
повинні
abans
##ray
עצמו
Eastern
रुपैयाँ
##lua
##wał
Join
Ştatları
##tag
доступ
inget
PKK
kuanza
లైన్
sluit
ellen
EPA
##िस
Dennis
##ប់
Azt
##וף
نگاه
tabel
صحیح
formal
आया
પ્રાપ્ત
##уп
들어
nọmba
serangan
giriş
Deel
##gaan
Evo
arka
телефона
tegelikult
منتقل
Temple
301
##ሙ
izaten
honek
armas
comentario
técnica
bungtod
रोजी
rispetto
uste
utzi
viņam
waarop
منزل
##stes
morto
leith
töö
nuestras
Ibi
ඉඩ
නොහැකි
அமைச்சர்
##ような
grupe
balki
largo
Ռուսաստանի
terre
##lot
##чин
товаров
razloga
своето
pwosesis
nguy
воду
##llinen
eBay
##ರಲ್ಲಿ
Adrian
UPS
mái
##ction
aquestes
රාජ්
CAS
그런
множество
announced
możliwości
##tais
olevat
बनाया
teve
мог
perkembangan
effetti
छोटे
महाराष्ट्र
לחץ
२५
wine
ginagawa
wam
sagala
nsogbu
plizyè
آل
veut
Ecco
Eylül
CAD
##ሽ
करोड
##рт
clienti
enten
중요한
Konto
उत्पाद
πώς
għax
بنیادی
Сол
plugin
##keit
prostu
fedha
##sma
245
አለው
Hrvatska
ഉപയോഗിച്ച്
статус
বহু
noastre
Unis
maxsus
186
ಇದರ
##ակի
भगवान
##ското
janela
آمده
कधी
जाए
došlo
Tous
offered
txheej
##jący
एस
jullie
Prema
mahasiswa
firme
정말
ይሁን
ମଧ୍ୟରୁ
उसका
tsheb
##niň
डेटा
आगामी
որն
жай
vare
##unu
##sman
knew
sredstva
##LO
कोशिश
##гыз
vợ
letto
Centrum
bhi
amafaranga
حوالے
দেয়
nasi
ఎన్
Sale
##ံ
##hme
времена
muburyo
talde
വില
गांव
nächsten
church
outubro
início
Mitarbeiter
fiscal
تقديم
تاریخی
Franco
wá
پشت
##Х
дод
clave
dessus
##ето
WWE
mota
kindlasti
usein
שירות
egyes
Só
Km
berean
balón
brengen
Hoteli
zonas
Sweet
ಹಲವು
оние
nyandak
NUMBER
poza
podstawie
хэд
жасау
ചിത്രം
obtener
Latest
##من
dhéanann
रिपोर्ट
##ങ്ങളില്
##kého
##အောင်
enhver
pye
kaming
atmosfera
ជួយ
moes
vähemalt
والوں
191
Tyskland
शकतात
satunya
München
permanente
##чке
כפי
##tama
##mera
Peringkat
##фи
jedem
regarding
##در
klasse
##site
이미
පිළිබඳව
##KE
میدان
technologies
lemah
##itet
کودک
chomwe
##лыгы
##maya
##wang
gouvernement
NJ
رفت
kurz
vektor
BP
जिस
þátt
इतिहास
uwagę
terbesar
fala
edilən
desann
obu
njengoko
fields
maranéhanana
demais
##ления
##kla
جے
stem
لاء
එසේ
يۈز
mwenye
##णार
moat
lakho
npr
##ጡ
तुम्हाला
Ngọc
Themen
Много
thread
وه
cars
Ninh
kabiri
##मी
standards
##nger
တို့
exclusive
AIDS
risultati
eiro
membre
##්න
##dha
bəzi
özellikle
##sht
تحميل
pagkain
##ቸው
loan
Engine
مشروع
Sub
Amb
keinen
активно
ພະ
מים
گوید
##meter
reference
##name
gói
있지만
Because
લઈ
boje
הייתי
ride
passende
ഇപ്പോള്
dev
OH
phiên
Bagaimana
babo
Здесь
##aal
##tions
##dina
документ
Rok
ngandika
свае
Helen
Bowl
stark
Morris
tóc
plaas
Əgər
यादव
رضا
yönelik
პატარა
ağır
souvan
Thu
ସେଠାରେ
edərək
maendeleo
ਹੇਠ
Csak
உள்ளிட்ட
weke
yaxın
Bond
sizi
BÉEÉä
žinote
साथै
##ଥିବା
FAQ
그것은
grands
##ô
kaumahan
crédito
Санкт
kupita
Dewan
σειρά
deset
Estás
##lov
Rusya
nasze
గొప్ప
ಅತ್ಯಂತ
bild
##сия
##ರೂ
Apre
hoop
vetë
Very
شبكة
غرفة
##ကြောင်း
Alaska
тогаш
juego
segi
offres
Istanbul
labada
مطالعه
näyttää
تخصص
اداره
spoločnosť
##ving
digawe
meydana
oportunidade
##ског
1890
चांगले
##pes
Bài
##say
sobe
людини
valg
aumentar
турат
आयोजना
Madison
norsk
auta
Αυτή
mukha
තියෙනවා
الوطنية
sita
Amanda
tko
##mira
знаю
dēļ
thov
0000
peralatan
meilleure
նչ
ཡོང
perasaan
##ស
Situs
järgi
думаю
Punta
آمد
aru
زیاد
almaq
documentos
##શે
##লি
glo
كىچىك
##পি
mõned
ambos
страница
ಮಾಡಿದ
##lach
Bunday
ganska
adına
chăm
σύστημα
##rios
AFP
pattern
##ৰি
##ladı
разлика
हुनेछ
##ంచి
deler
##ْ
##kta
##ბი
ចំពោះ
faighinn
τέλος
heure
familja
alias
vive
voorzien
julio
##elig
عنه
skor
##tasuna
passat
প্রধানমন্ত্রী
eur
##dami
ispod
##লৈ
negocio
Oku
дигән
үе
ដាក់
Hd
күнү
196
visitar
benim
মে
Craig
##жен
Posts
inguruan
advertising
الملف
قوم
##ики
ဖြစ်
शादी
Vor
##vao
iwu
ല്
lilemo
வகையில்
immediately
extrem
CCD
ئاينىڭ
نسل
Chance
articoli
entender
percuma
Νέα
enwere
ntuj
นี้
क्रिकेट
ਐਸ
RNA
##eto
##ረ
šių
주요
##JE
కోడ్
##टा
kontakte
engagement
##скай
ዋጋ
했다
йил
Дали
থাকা
ιστορία
accept
sonder
бўйича
ਕਦੇ
hesab
böyle
contenuti
তোমার
macho
ÑÄÑu
Government
plass
listrik
algunas
processing
etiam
कार्ड
tận
따라서
skala
pangalan
tsena
reizi
આપવા
Larry
##ggi
جهاز
##ration
ayon
уровень
asia
##ள
buurt
хэмээн
zvakanaka
##בים
または
McDonald
Sila
sezone
Connect
programmi
किती
##áciu
##лин
Vam
baadaye
ÑÖÑ
##ກ
قاتارلىق
Eye
आठ
##TION
opiniones
कोणत्याही
Wochen
înainte
довольно
##ಗಿ
nt
រក
##ቲ
المنتج
fiican
##कार
##kira
ملي
τελευταία
##তার
##ఫ్
калды
terwyl
comentários
Dahil
khăn
kraja
службы
venir
sih
##nach
самый
أكبر
Bari
μεγάλο
tipu
Nicole
Shin
reasons
inkább
cf
יודע
kuasa
nuen
##kiem
ulimwengu
ship
demanda
རྒྱ
##ലി
carga
junio
powerful
neist
plante
סוף
216
eenvoudig
náš
yakni
lam
##စွာ
beginning
##ghi
siècle
tuag
કાર્ય
wegen
läsa
ਸਾਨੂੰ
speak
##لاش
cambios
##аны
##tad
##malla
лично
школы
صنعتی
enkelte
карта
Expo
##στική
након
därför
cold
berkembang
educación
semèn
##ර්
Bola
पसंद
Tarafindan
кори
avoid
Perry
##צ
attack
gcéad
કરું
pū
LTE
تن
ਦਿੱਤੇ
aʻu
##ството
FR
##ax
dalawa
Gan
mayroon
Tool
conas
Future
criar
Britain
##inə
säga
malu
onlara
halos
йому
erbyn
Unser
nhẹ
havi
disebabkan
beti
Dal
लाल
##שים
가진
azon
کلیک
Германия
למשל
##owane
شادی
KO
Interview
##vam
bases
zda
shuning
Dieu
lab
Selv
тебя
ཞིང
Bang
ఆర్థిక
лв
Gure
முழுவதும்
tovuti
Prezidenti
према
αφορά
##ಾದ
সৃষ্টি
Paula
##żi
maliit
principio
##lyn
upplýsingar
thoradh
ምክንያቱም
Улсын
##tjes
ugonjwa
række
thái
Quý
Visi
էջ
Eğer
hosszú
##дон
πλέον
Трамп
cores
rib
zákona
dauden
thiệu
यांचे
aria
zviri
따르면
##ahan
##nol
defensa
तहत
এসে
##ត
##ьного
АКШ
##ís
wear
##ळी
spin
##гын
instant
Abs
##NI
اچھا
алга
الصور
lepo
kost
forskjellige
नुकसान
меньше
baz
કોડ
bè
compartilhar
pourrait
opet
fleiri
##ගෙන්
bruges
exchange
ज्या
тора
darparu
namn
aproximadamente
មុខ
##oba
məlumata
ಅದೇ
möjligt
Deep
##دو
memenuhi
couleur
klaar
घेतली
чоң
komo
satış
dost
##čná
tempu
Samuti
Marekani
##эг
جسم
eyikeyi
رپورٹ
testi
liaj
luce
wọ́n
શબ્દકોશ
берүү
vendas
kaniyang
pratique
exact
sinna
hozzá
although
yaşlı
devis
શામેલ
världen
entrevista
veg
innovation
берничә
tue
linha
голяма
##കളില്
있다는
serán
पांच
Cleveland
szybko
менің
Editor
bheidh
paġna
environ
сможете
району
##uoti
podría
##ण्याची
آنچه
במשך
##lda
##had
ücretsiz
Сега
येते
mawr
тийм
sufiĉe
ruo
##τό
##сты
bosh
##vate
##რები
टी
stát
progress
ئىگە
kem
тиіс
نخواهد
##יס
Ñé
každého
##āli
komu
belang
kusema
gra
हमारी
adi
Cultural
rzeczy
load
hluta
povis
bekas
oherwydd
hujan
فَقَالَ
frågor
ପ୍ରାୟ
navigazione
##טי
##ታል
##asje
ಸರ್ಕಾರ
leuke
autant
carane
tambah
gros
##овать
gadis
kedai
Daca
weniger
bật
πόλη
ngu
dużo
##tamine
बेला
Atlantic
conforme
πλαίσιο
naší
þann
##bung
tästä
කොළඹ
cường
Wan
minic
كَانَ
bloggen
دختر
zostały
näha
המשפט
praat
मिला
##यर
Hent
geworden
##bie
समावेश
ક્યારેય
##λο
232
nuit
middle
##chten
усё
justice
svijetu
क्यों
Angebote
지역
straight
ail
##rama
akazi
Urutan
promo
Josep
۱۰
kn
кайра
hamda
kojih
සොයා
الإعلانات
ҚР
Reino
##જી
луѓето
داری
août
Nak
óta
боз
sehari
نماز
taċ
parku
essential
Death
animals
efe
nəticəsində
##ović
dates
ihnen
njim
túl
үеийн
##θούν
Ձեր
नजर
Aires
മുതൽ
##čila
мала
انتشار
làn
ಜಿ
muut
Pixel
राजा
отношения
Elite
زیبا
##taja
Eftir
fuera
откриете
میرا
ngôi
ენის
##abb
kbir
##ace
OFF
##щий
حصل
##đe
tipa
thiaj
だった
estará
##iseen
##eria
faapea
rohe
እንደሆነ
икән
అధిక
የበለጠ
Ekki
ئۇنىڭغا
##σετε
сваю
ngokuthi
bijna
입니다
ऑनलाइन
çalışma
##િન
dziko
##ሱ
veta
རྩོམ
ташкил
universal
viņiem
танд
ahead
##ıyor
##गे
regering
دارم
Pháp
mega
מעט
Podle
prachtige
naiz
Print
जिल्हा
своими
uključujući
अवसर
zida
miał
##ions
Abantu
Sản
viis
którą
zitten
láta
##nike
##ýär
actor
ଶେଷ
Einsatz
##ljeni
Québec
производства
потім
тыдзень
##つ
1903
Boeing
נשים
атрымаць
EK
ります
opción
gulu
rashin
Аның
manner
letech
оскільки
ହୋଇପାରେ
plaisir
Win
##ம
procedure
intérieur
Svo
##zela
##ας
vendosur
басып
flesta
##ēta
několik
söyledi
Դա
##mək
تەلەپ
нерсе
vienkārši
مطالب
देख
Tieto
kul
vilka
persoal
नागरिक
Greg
མོ
ugbu
mundur
پروگرام
oy
##oga
efektif
jantung
##ewe
##ària
airgead
prise
##лэх
teljesen
Яны
##מ
ambalo
fóra
##tá
چی
والتغليف
ottaa
easier
SF
مسجد
##וד
kaufen
にて
generation
velja
ସମାନ
Zagreb
maksimal
##lás
cirka
serà
padre
Україна
вида
ఇన్
fasilitas
##eurs
##zek
दोन्ही
관한
209
кафе
ચાર
πολλές
Ser
מעל
##yet
ဆိုတဲ့
अभियान
masse
##rê
Perfect
रकम
##seks
hoteli
нивните
jaso
ezer
فارسی
Mohd
stalo
waarom
Terry
okay
محدود
##ရ
Millionen
oude
gwasanaethau
shugaban
lasta
დღის
раза
ընդհանուր
chcesz
berdi
named
slags
Jamie
ganze
trots
senare
milioane
этому
continuación
għan
juaj
Serbia
nejlepší
država
##거나
##oc
CRM
terwijl
Apartment
തി
প্রশ্ন
nofoaga
hoê
loka
1909
მისამართზე
##️
eius
pengetahuan
Сергей
רבות
dins
دین
близько
##બ
Maine
сказал
જાહેર
xejn
crusher
września
داشتن
ukweli
hơi
ẹya
##ző
##eas
vitro
значит
सक्षम
xov
पूरे
différentes
áirítear
нем
sadaya
##하다
Small
Estamos
##ovo
erre
ұлттық
încă
ấn
msaada
dermed
ତଥାପି
tfal
γυναίκα
управление
##iera
teki
tauira
##bala
ចង់
знае
정보
dobar
Հանրապետության
##यला
pek
Learning
sejumlah
acción
##лый
Освен
##く
himself
Ziel
priča
བྱུང
Beta
thiên
rád
கைது
##anse
bergerak
Isang
provider
nudi
##hau
നടന്ന
##міз
   
wout
prostoru
##ിരുന്നു
bestaat
truly
birga
слід
Desktop
հիմա
##യായ
##чат
soy
Uno
Pearl
TB
ເຖິງ
оид
##bay
impacto
शकत
njohur
होतं
өгөх
तुलना
##ണ്ട്
программы
UFC
pense
resort
journey
opravdu
slechts
različnih
plana
Mam
iris
точка
thuế
носи
PSG
faptul
hemos
##ೊ
bikar
opere
سودا
jne
சமூக
مخصوص
թարգմանություն
ifade
алғашқы
CR
##രം
texte
भएर
неговите
એવી
Minggu
NOT
##كم
terbuka
వచ్చే
##ario
byiza
440
##vice
##ள்ளது
CH
##zny
[...]
